{
  "▁birch": 29588,
  "▁magician": 26175,
  "▁MAC": 14827,
  "▁$12": 12654,
  "▁Reflection": 26976,
  "▁fri": 9870,
  "▁transfers": 10375,
  "enza": 21035,
  "astie": 31755,
  "▁ribbon": 9006,
  "▁elicit": 23498,
  "▁relate": 4865,
  "▁Analysis": 7128,
  "▁exposed": 4571,
  "▁curricula": 29997,
  "▁PM": 2826,
  "/6": 15831,
  "▁oats": 21907,
  "3-3": 20634,
  "▁environments": 5546,
  "▁conductivity": 29964,
  "▁electoral": 18370,
  "▁specimens": 20747,
  "away": 6929,
  "▁doors": 2675,
  "▁plane": 5195,
  "▁unreliable": 26631,
  "pour": 21481,
  "City": 19897,
  "eurs": 26948,
  "▁Valve": 20317,
  "▁worst": 4192,
  "hip": 17359,
  "▁Brooklyn": 9088,
  "▁guess": 2786,
  "▁mousse": 31956,
  "▁Affect": 26770,
  "RCA": 21441,
  "▁Gibson": 18403,
  "▁Merri": 22770,
  "▁Resource": 10578,
  "▁zest": 20011,
  "▁devotees": 29175,
  "studded": 28137,
  "install": 13311,
  "ит": 27610,
  "HOUSE": 26739,
  "▁strain": 6332,
  "▁Friedman": 27992,
  "▁Nassau": 30462,
  "▁promoting": 5227,
  "▁particular": 1073,
  "▁panorama": 26408,
  "▁1947": 19820,
  "<0x3B>": 62,
  "▁breaker": 20326,
  "9-11": 30537,
  "▁hostess": 29956,
  "▁levy": 25340,
  "▁Chuck": 15112,
  "ants": 5254,
  "▁EPA": 12099,
  "▁Regional": 6681,
  "ни": 13840,
  "charging": 27806,
  "▁Theater": 11285,
  "▁Cher": 17940,
  "9.1": 24819,
  "▁virtual": 3590,
  "▁write": 1271,
  "▁signs": 3032,
  "▁searches": 9652,
  "▁racist": 17957,
  "▁feelings": 4479,
  "competitive": 29049,
  "▁notifications": 11838,
  "ists": 2942,
  "▁Hit": 11753,
  "entino": 28565,
  "▁author": 1795,
  "▁lap": 7568,
  "▁49": 6651,
  "<0x8B>": 142,
  "▁Students": 3157,
  "▁provisional": 26282,
  "▁DI": 8518,
  "▁Bet": 9799,
  "rang": 10526,
  "▁delectable": 28284,
  "▁designs": 2377,
  "▁hurdle": 16242,
  "<extra_id_93>": 32006,
  "▁company": 494,
  "CO": 4199,
  "▁lashes": 23721,
  "aci": 7563,
  "▁FREE": 4082,
  "Money": 29260,
  "▁rows": 11717,
  "cton": 28503,
  "enstein": 20106,
  "▁adult": 3092,
  "▁Lucas": 15344,
  "▁journalist": 9835,
  "▁staggering": 21368,
  "▁indoor": 5026,
  "▁decor": 4957,
  "▁Broadband": 28699,
  "play": 5912,
  "▁billionaire": 24859,
  "▁Edit": 10202,
  "▁members": 777,
  "short": 21073,
  "▁TS": 13428,
  "▁limp": 27416,
  "▁cor": 9226,
  "accumulating": 28802,
  "▁wisdom": 6049,
  "▁Ga": 5192,
  "▁Deutsch": 29500,
  "▁March": 1248,
  "▁Tunnel": 25068,
  "▁Gem": 14448,
  "▁wrinkle": 26286,
  "Pvt": 22317,
  "▁grid": 5880,
  "PC": 4879,
  "▁NON": 28124,
  "▁indicative": 21851,
  "▁utilization": 14943,
  "encia": 24119,
  "▁Chief": 3754,
  "▁pointed": 6141,
  "▁Sup": 19656,
  "▁Avalon": 29910,
  "▁joy": 3355,
  "▁Shim": 23068,
  "▁amino": 12807,
  "▁persons": 4994,
  "▁participatory": 28975,
  "▁unpack": 22204,
  "▁hello": 14647,
  "▁paddle": 12026,
  "▁Cai": 20972,
  "▁bankrupt": 24294,
  "▁breathable": 21866,
  "couple": 25114,
  "777": 19281,
  "▁Apr": 6793,
  "▁Introduce": 31579,
  "cautionary": 31812,
  "▁Greece": 8097,
  "ulf": 17556,
  "▁Cargo": 25990,
  "Shelves": 31992,
  "▁Inter": 3707,
  "▁Nationwide": 27990,
  "▁Knicks": 31794,
  "▁representations": 15487,
  "▁baby": 1656,
  "DG": 14786,
  "▁champions": 15070,
  "▁federation": 27847,
  "▁Model": 4108,
  "▁Lunch": 14157,
  "nius": 27526,
  "▁Basketball": 16963,
  "▁Eve": 9976,
  "▁heavenly": 20290,
  "▁Electricity": 26607,
  "▁pretending": 26485,
  "▁exemplary": 17529,
  "▁Row": 8217,
  "▁Lion": 14271,
  "▁unparalleled": 16367,
  "▁groundbreaking": 21665,
  "▁Suburb": 28874,
  "▁Chevrolet": 14238,
  "▁Reel": 27756,
  "▁used": 437,
  "▁clog": 22402,
  "▁hottest": 14955,
  "▁Xmas": 31829,
  "▁shortest": 21533,
  "WL": 22226,
  "”)": 6598,
  "ened": 8501,
  "▁Rafael": 26314,
  "▁Nur": 23625,
  "▁Bon": 7221,
  "▁five": 892,
  "shaw": 12183,
  "▁greasy": 27332,
  "9.9": 26584,
  "▁intention": 6747,
  "tucked": 17821,
  "730": 26472,
  "▁WV": 19978,
  "▁crook": 25299,
  "▁Ruby": 15162,
  "▁builders": 12714,
  "▁underestimate": 19149,
  "▁deactivate": 29405,
  "▁proficiency": 19950,
  "▁+": 1887,
  "▁recipe": 2251,
  "arrow": 17032,
  "ulator": 11584,
  "lde": 19622,
  "4,000": 16587,
  "blogged": 30101,
  "enrolling": 29333,
  "▁bothered": 18836,
  "▁Down": 5480,
  "▁cilantro": 23465,
  "▁outdoor": 2133,
  "▁offspring": 25144,
  "▁rebrand": 26792,
  "▁Alfred": 15657,
  "(),": 13353,
  "▁beverage": 11055,
  "▁Fame": 13200,
  "▁Command": 10809,
  "▁suspects": 18815,
  "▁Windows": 1678,
  "▁Haz": 23744,
  "▁limits": 4441,
  "riti": 15609,
  "▁inequality": 17323,
  "▁inhabit": 21518,
  "▁blah": 28081,
  "▁VI": 9359,
  "▁racket": 29966,
  "▁defect": 13873,
  "во": 25767,
  "strom": 19081,
  "▁participating": 5156,
  "▁breathe": 9298,
  "▁Transit": 18805,
  "Place": 30005,
  "▁Huntington": 22918,
  "▁hats": 12598,
  "▁record": 1303,
  "▁MT": 9475,
  "▁Inspiration": 16338,
  "▁Shenzhen": 29171,
  "▁ruins": 16308,
  "counter": 20760,
  "Nicol": 27946,
  "▁worrying": 12970,
  "answer": 29347,
  "▁cauliflower": 23155,
  "▁Maria": 7803,
  "▁GC": 16595,
  "▁CRM": 12955,
  "EK": 16122,
  "▁capturing": 12467,
  "▁heavy": 2033,
  "cook": 21613,
  "▁WS": 16887,
  "▁forex": 11078,
  "▁Pascal": 30112,
  "▁bunch": 4963,
  "▁beacon": 22090,
  "▁Hyderabad": 19785,
  "<0xB4>": 183,
  "▁SEM": 23227,
  "▁apex": 28107,
  "▁golden": 5274,
  "ifiable": 18310,
  "<extra_id_61>": 32038,
  "▁waking": 17024,
  "putation": 20792,
  "▁deny": 10846,
  "▁3.5": 8860,
  "▁Pelican": 30679,
  "ometric": 16654,
  "▁stages": 4910,
  "▁turmoil": 24401,
  "▁reckon": 18730,
  "▁pelvis": 31834,
  "▁vintage": 4430,
  "confronted": 18292,
  "▁halls": 17595,
  "bate": 14502,
  "▁codes": 4311,
  "▁Quarry": 25841,
  "▁Colts": 29179,
  "▁announced": 1868,
  "▁marketers": 12212,
  "▁astronomy": 26608,
  "▁Campus": 11779,
  "▁constellation": 26390,
  "▁categorical": 31628,
  "▁appreciative": 28905,
  "▁collectors": 15419,
  "▁touch": 1548,
  "▁asset": 4550,
  "▁220": 13878,
  "kop": 23265,
  "▁fasten": 16716,
  "128": 25472,
  "▁onsite": 15991,
  "▁regime": 6806,
  "▁copied": 14870,
  "▁cub": 21880,
  "▁iCloud": 28274,
  "▁incredibly": 4141,
  "Reducing": 29816,
  "▁Philharmonic": 29568,
  "▁Nikola": 27539,
  "▁$1.5": 25016,
  "Comp": 23569,
  "IZE": 19135,
  "zhou": 21179,
  "▁AC": 4128,
  "What": 4392,
  "▁ponder": 16694,
  "MIL": 22621,
  "▁Moto": 17380,
  "0,": 13373,
  "▁Pdf": 23833,
  "▁induction": 16294,
  "▁brick": 6689,
  "▁Elementary": 12244,
  "ddington": 27316,
  "▁Bethany": 30411,
  "user": 9110,
  "jpg": 12166,
  "▁hotels": 4206,
  "▁resort": 4214,
  "▁pudding": 19486,
  "▁greenery": 24763,
  "coloured": 27055,
  "▁1860": 25533,
  "▁cured": 21644,
  "▁lubricant": 26750,
  "EEN": 18880,
  "▁supposed": 3986,
  "▁instrument": 5444,
  "ult": 7413,
  "▁monochrome": 31206,
  "▁Blend": 13086,
  "▁burglar": 18718,
  "925": 25842,
  "▁exhibits": 12428,
  "▁often": 625,
  "▁insertion": 21879,
  "▁Stephen": 5678,
  "▁baseball": 6722,
  "tal": 3295,
  "▁euros": 16602,
  "▁NPC": 26780,
  "Activ": 21487,
  "▁EC": 7921,
  "▁circumstance": 16487,
  "three": 15347,
  "▁ten": 2134,
  "▁pier": 19711,
  "flagged": 29296,
  "cry": 18120,
  "My": 5484,
  "▁affair": 12248,
  "▁ninja": 28658,
  "▁Individuals": 16173,
  "erman": 14315,
  "▁relay": 11032,
  "▁disk": 5918,
  "▁auto": 2238,
  "▁refund": 4958,
  "pressure": 20882,
  "▁paramedic": 30251,
  "▁Disc": 12416,
  "ing": 309,
  "▁counter": 2645,
  "▁incur": 15671,
  "▁having": 647,
  "▁reflux": 25545,
  "▁retrospective": 24905,
  "▁electronics": 8323,
  "▁veto": 26394,
  "▁Titanic": 30035,
  "▁conscience": 19846,
  "▁opened": 2318,
  "▁4.0": 14546,
  "esse": 13784,
  "▁appendix": 31534,
  "▁December": 1569,
  "encyclopedia": 27140,
  "▁constrained": 25500,
  "▁France": 2542,
  "▁NW": 13833,
  "▁lead": 981,
  "▁infections": 9240,
  "▁Visa": 10609,
  "kes": 8571,
  "▁Ameri": 24928,
  "▁clarinet": 30438,
  "▁wearable": 19481,
  "▁preheat": 27616,
  "▁Matthew": 6634,
  "▁playground": 10691,
  "lip": 6763,
  "rak": 12134,
  "▁Accurate": 29884,
  "▁relaxation": 8872,
  "arguably": 14867,
  "▁bio": 3426,
  "SIG": 22180,
  "▁integrated": 3280,
  "▁edgy": 29302,
  "▁Johnny": 13894,
  "▁Publisher": 12027,
  "val": 4331,
  "mix": 11930,
  "▁dispatched": 23098,
  "▁Kidney": 30776,
  "~": 9058,
  "▁upgrade": 4116,
  "▁Fake": 26559,
  "▁galvanized": 28211,
  "▁compulsory": 21609,
  "▁meltdown": 30021,
  "▁BR": 7647,
  "▁lava": 19110,
  "▁Basically": 11524,
  "▁Mall": 9686,
  "▁Henderson": 18133,
  "▁Heath": 19837,
  "90,000": 28288,
  "▁Lahore": 30008,
  "▁he": 342,
  "search": 13492,
  "▁Washington": 2005,
  "▁melon": 29383,
  "▁AWS": 17571,
  "▁Attractive": 27026,
  "▁unlimited": 7484,
  "▁spectrum": 6693,
  "▁Neph": 28816,
  "▁undu": 27412,
  "▁forget": 2249,
  "▁installed": 2368,
  "▁citizen": 8596,
  "▁Moist": 29869,
  "▁Sweet": 7654,
  "▁calculate": 8262,
  "▁pursuit": 9243,
  "▁manicure": 29117,
  "▁45": 3067,
  "▁NEXT": 29845,
  "▁Paw": 17956,
  "▁Hunger": 25531,
  "HO": 12692,
  "▁iPod": 11795,
  "d": 303,
  "▁Bailey": 15816,
  "▁mouse": 5823,
  "▁list": 670,
  "▁guardian": 12891,
  "▁experts": 1917,
  "▁Confidential": 29728,
  "▁Japanese": 3101,
  "245": 25542,
  "lton": 6307,
  "▁personnel": 4917,
  "▁Sne": 25718,
  "▁expressive": 21589,
  "▁competitive": 2676,
  "▁newspaper": 5726,
  "▁flies": 13801,
  "▁Historic": 13038,
  "▁wishes": 6472,
  "▁Step": 3457,
  "▁mismatch": 27300,
  "▁Cornwall": 19361,
  "▁Pair": 15814,
  "▁MLS": 15049,
  "▁THE": 1630,
  "▁neighbourhood": 13549,
  "▁undergraduate": 8113,
  "▁climate": 2514,
  "▁desires": 10193,
  "▁threats": 7127,
  "▁hormones": 16000,
  "214": 24632,
  "▁granted": 4846,
  "▁Asphalt": 28585,
  "▁beets": 29394,
  "▁sew": 15711,
  "▁fingerprint": 15383,
  "▁consume": 7595,
  "▁villain": 16638,
  "▁communion": 26950,
  "chat": 16322,
  "descended": 26405,
  "▁badly": 9593,
  "▁practical": 2488,
  "fax": 22268,
  "▁first": 377,
  "▁Practice": 5905,
  "▁Cialis": 28840,
  "▁Serbia": 17623,
  "▁envision": 19457,
  "rade": 19872,
  "pound": 16116,
  "▁rustic": 10063,
  "▁Copy": 13957,
  "▁exams": 9034,
  "▁select": 1602,
  "▁antagonist": 25599,
  "DN": 13712,
  "▁Balloon": 27557,
  "▁Obviously": 9775,
  "▁implementation": 3173,
  "▁Depot": 15008,
  "bach": 13136,
  "▁courier": 20032,
  "▁3:00": 24461,
  "▁Elliot": 27716,
  "7-8": 20479,
  "▁critique": 14830,
  "▁clips": 11122,
  "▁pelvic": 29550,
  "▁Religious": 21047,
  "▁insulated": 19217,
  "▁pear": 18099,
  "LN": 23547,
  "▁incline": 29618,
  "▁pl": 6009,
  "WORD": 30775,
  "▁Joanna": 28867,
  "shortlisted": 27593,
  "▁licenses": 13142,
  "▁gorilla": 29994,
  "▁pasture": 17836,
  "▁Dock": 20138,
  "Saharan": 29512,
  "ر": 8197,
  "▁investment": 1474,
  "▁wore": 10607,
  "info": 10818,
  "VM": 15413,
  "▁Glenn": 17193,
  "▁par": 4101,
  "1.7": 14615,
  "▁Noah": 17340,
  "▁van": 3980,
  "▁NORTH": 31942,
  "sford": 22703,
  "kri": 23241,
  "pos": 8542,
  "nav": 19255,
  "▁Bo": 3056,
  "▁phenomenon": 9620,
  "▁dome": 17039,
  "build": 18373,
  "▁returned": 2755,
  "▁nice": 1131,
  "uba": 13594,
  "▁Jimmy": 12241,
  "▁willingness": 13472,
  "aught": 11700,
  "tama": 23768,
  "▁obese": 23220,
  "▁Celsius": 26342,
  "figuration": 28386,
  "285": 26413,
  "▁30,": 8870,
  "▁1944": 20149,
  "ges": 6775,
  "▁happen": 1580,
  "▁Leigh": 21730,
  "▁doubled": 13239,
  "▁Levi": 15272,
  "▁problem": 769,
  "national": 16907,
  "▁Emp": 18230,
  "▁high": 461,
  "▁descendant": 19495,
  "▁Patriots": 19743,
  "Even": 17875,
  "▁dim": 10772,
  "▁Dakota": 11021,
  "first": 10920,
  "▁sitting": 2865,
  "▁Panel": 6713,
  "▁Ivy": 22722,
  "cep": 16540,
  "▁Cultural": 11367,
  "<0x4E>": 81,
  "▁picks": 10647,
  "arth": 14967,
  "page": 5953,
  "▁Hunter": 8896,
  "itarian": 15918,
  "▁lovingly": 25855,
  "uku": 20444,
  "▁Indeed": 7392,
  "▁Flush": 28041,
  "▁zu": 11696,
  "▁cabbage": 18520,
  "▁Sword": 22881,
  "▁CAD": 15811,
  "elle": 6211,
  "▁shells": 17292,
  "ters": 5327,
  "▁cleansing": 14766,
  "▁Incident": 29271,
  "▁(1998)": 28123,
  "1": 727,
  "▁purifier": 27375,
  "▁Build": 8534,
  "▁Nobel": 19380,
  "▁chemicals": 6177,
  "▁Spoon": 23535,
  "▁Quin": 15781,
  "store": 6264,
  "esen": 23158,
  "▁Rad": 9824,
  "▁dessert": 8515,
  "▁Formula": 14254,
  "▁legal": 1309,
  "▁squad": 8886,
  "eller": 8925,
  "▁Peru": 14257,
  "▁heaters": 19016,
  "▁NEVER": 21716,
  "▁Best": 1617,
  "▁Lincolnshire": 31594,
  "▁PI": 9815,
  "dipped": 22382,
  "▁bot": 11096,
  "War": 15876,
  "▁frustrating": 10405,
  "▁lyrics": 9512,
  "▁$18": 21667,
  "▁WC": 15416,
  "▁Permission": 29419,
  "▁Lawyer": 22558,
  "▁Friendship": 27021,
  "▁technicians": 7136,
  "▁chemotherapy": 17015,
  "etty": 17550,
  "▁Thompson": 10315,
  "▁timber": 9260,
  "▁amenities": 5913,
  "▁fired": 8203,
  "775": 28261,
  "pion": 25742,
  "size": 6781,
  "▁goals": 1533,
  "logy": 5763,
  "▁founded": 3969,
  "tler": 16861,
  "▁revealing": 13111,
  "▁meals": 3853,
  "▁employer": 4497,
  "register": 19163,
  "▁walk": 1273,
  "▁Ink": 15335,
  "▁contents": 6552,
  "▁flooding": 12567,
  "▁Send": 7664,
  "ENCE": 17655,
  "▁parody": 31584,
  "script": 11366,
  "▁smuggle": 29525,
  "LB": 13350,
  "▁Yogi": 31993,
  "▁balcony": 10301,
  "▁47": 7308,
  "▁Frag": 28693,
  "▁Wu": 14498,
  "▁Pediatric": 18963,
  "▁micro": 2480,
  "▁CONTACT": 31214,
  "amidst": 20738,
  "▁Flora": 27284,
  "▁Specifically": 15354,
  "▁smokers": 24689,
  "▁Corp": 7417,
  "▁Sonoma": 26362,
  "▁Organis": 25798,
  "▁recruitment": 8041,
  "▁>>": 12873,
  "▁vendor": 7501,
  "▁Admin": 16275,
  "▁Salem": 19832,
  "▁survived": 9380,
  "watering": 20003,
  "▁flyer": 13737,
  "▁chandelier": 16174,
  "AKE": 20403,
  "Space": 19710,
  "▁Coil": 27369,
  "▁placenta": 31649,
  "<0xDB>": 222,
  "▁harbour": 18017,
  "▁arbor": 26284,
  "▁succinct": 29479,
  "▁thermal": 7570,
  "<0x2C>": 47,
  "▁pitching": 19004,
  "guard": 10764,
  "▁staging": 18564,
  "▁devil": 15038,
  "▁additive": 24273,
  "101": 15006,
  "▁sunset": 8969,
  "▁(1997)": 29208,
  "▁Artistic": 27573,
  "▁Lakers": 26778,
  "itch": 8342,
  "possibly": 28155,
  "▁VIP": 10996,
  "▁innovation": 3203,
  "phi": 12515,
  "heat": 11009,
  "▁June": 1363,
  "QT": 28393,
  "divi": 16085,
  "▁efficacy": 14576,
  "▁bone": 4285,
  "▁richness": 22735,
  "▁magnitude": 13893,
  "▁fix": 2636,
  "ancy": 8993,
  "IONS": 20976,
  "^": 15987,
  "▁(40": 23014,
  "▁apart": 3305,
  "▁attribution": 27295,
  "▁beat": 3200,
  "▁juggle": 29605,
  "horse": 17419,
  "▁seller": 5940,
  "▁Microsoft": 2555,
  "▁feeder": 16396,
  "▁successfully": 3096,
  "▁Animation": 23455,
  "NCE": 20940,
  "cker": 9648,
  "orous": 19093,
  "resolving": 20301,
  "▁bassist": 29489,
  "<0xBC>": 191,
  "▁Shepherd": 18508,
  "hack": 18611,
  "▁sequences": 13475,
  "▁expertise": 2449,
  "▁projects": 1132,
  "▁intentionally": 16643,
  "program": 16358,
  "▁Cinnamon": 29481,
  "▁Cole": 11518,
  "▁womb": 27061,
  "▁Luxury": 11226,
  "▁Rash": 25813,
  "▁shake": 7076,
  "▁Blues": 15078,
  "QUI": 18947,
  "▁Swiss": 8681,
  "▁Gas": 6039,
  "105": 21038,
  "technical": 22158,
  "▁aggregation": 26046,
  "▁Clare": 17214,
  "▁whim": 22643,
  "▁Pearl": 11341,
  "▁Adirondack": 30914,
  "question": 27966,
  "▁Harbor": 11218,
  "▁clergy": 24226,
  "▁ballet": 17220,
  "▁infantry": 28402,
  "▁tipping": 26113,
  "▁Palace": 8743,
  "▁mould": 13958,
  "▁generous": 6386,
  "▁earlier": 1883,
  "▁Lawn": 18195,
  "▁structured": 8807,
  "▁Naples": 22698,
  "▁Weight": 9453,
  "ready": 16327,
  "▁Sport": 6399,
  "▁Chart": 11981,
  "▁uses": 1864,
  "Eph": 30870,
  "231": 23791,
  "▁Kosovo": 29755,
  "follow": 18529,
  "▁Larry": 11740,
  "yet": 19919,
  "▁affirmative": 28631,
  "▁Network": 3322,
  "▁implementing": 6879,
  "▁Bomb": 17037,
  "▁opportunist": 31693,
  "▁Fibre": 30247,
  "ALL": 11423,
  "▁clarification": 20872,
  "▁Interesting": 16099,
  "MM": 9199,
  "▁EXPRESS": 27974,
  "▁Father": 4882,
  "bony": 25334,
  "▁suitably": 29549,
  "opt": 24562,
  "▁Stack": 17581,
  "▁possibilities": 5475,
  "Earned": 29620,
  "aylor": 19451,
  "▁Vector": 21794,
  "flam": 16981,
  "▁Everything": 5045,
  "▁recognize": 3633,
  "▁Café": 18345,
  "ction": 5687,
  "▁Citizen": 21416,
  "gov": 7138,
  "▁easy": 604,
  "▁bluetooth": 24391,
  "▁fairness": 20701,
  "▁vocalist": 23124,
  "YN": 24482,
  "▁wipe": 10402,
  "▁kills": 16357,
  "▁vehicles": 2529,
  "▁Orchestra": 12141,
  "▁centuries": 7415,
  "▁council": 4645,
  "4)": 10136,
  "▁empowered": 17955,
  "▁Beginning": 15878,
  "▁harm": 4489,
  "Cha": 8157,
  "80,000": 21243,
  "▁documentation": 5112,
  "▁parishes": 30663,
  "▁wanna": 15778,
  "Washington": 31729,
  "▁dominate": 13438,
  "▁actions": 2610,
  "▁bald": 22904,
  "Name": 19994,
  "▁Ukraine": 9013,
  "▁journal": 5098,
  "▁Cou": 20497,
  "▁lattice": 28260,
  "▁ramifications": 29848,
  "▁entryway": 27360,
  "▁Hin": 12286,
  "▁Hicks": 28729,
  "▁invite": 5140,
  "▁incubation": 30300,
  "▁Cairo": 22018,
  "▁advances": 10349,
  "▁laugh": 5997,
  "▁bridging": 29036,
  "▁Insight": 15923,
  "▁Congregation": 28462,
  "nadi": 31068,
  "▁compassion": 10675,
  "dad": 17769,
  "▁depressed": 16995,
  "▁allowance": 12517,
  "▁Fred": 9010,
  "▁Willis": 24739,
  "▁cliché": 27905,
  "▁deleting": 25625,
  "ulated": 12013,
  "▁muddy": 23919,
  "▁optimistic": 14430,
  "▁legislators": 21350,
  "▁Blanc": 13336,
  "355": 24010,
  "lbs": 18170,
  "ikh": 26561,
  "▁what": 347,
  "▁bite": 7533,
  "▁few": 506,
  "▁lurk": 31408,
  "pies": 10518,
  "▁Lovely": 12293,
  "indulging": 31419,
  "kW": 21440,
  "LE": 5751,
  "▁Care": 2648,
  "▁External": 19087,
  "▁crater": 24925,
  "▁campers": 21272,
  "▁Break": 9766,
  "▁several": 693,
  "dog": 9309,
  "<extra_id_7>": 32092,
  "▁Interview": 13534,
  "anel": 25723,
  "▁nervous": 6485,
  "▁awaken": 20784,
  "▁molding": 18448,
  "▁disorders": 6853,
  "▁edited": 5876,
  "indicating": 9731,
  "▁outreach": 11294,
  "▁refrigerate": 20269,
  "▁predominant": 29923,
  "▁arms": 4072,
  "▁tamper": 24453,
  "Veterinary": 21344,
  "/14": 21823,
  "▁Ordinary": 28680,
  "premise": 26534,
  "▁Kayak": 30226,
  "▁abolition": 31790,
  "▁Negative": 27671,
  "▁population": 1992,
  "▁precarious": 29570,
  "pas": 14414,
  "▁reserves": 7160,
  "streamlining": 31581,
  "▁rail": 6391,
  "revolving": 27569,
  "▁epoxy": 22914,
  "▁rug": 9929,
  "▁STOP": 29838,
  "▁brands": 2771,
  "through": 8258,
  "▁eruption": 24450,
  "▁hundreds": 2971,
  "sting": 9296,
  "▁Colombo": 29904,
  "▁Pip": 26240,
  "▁Rehabilitation": 21528,
  "▁CBD": 8481,
  "color": 10277,
  "▁Maggie": 21354,
  "▁Abdullah": 28909,
  "▁26": 2315,
  "▁sliding": 9937,
  "▁humidity": 12135,
  "▁prehistoric": 29913,
  "▁unless": 2541,
  "especially": 11148,
  "▁Animal": 7133,
  "\"": 381,
  "▁Beethoven": 28892,
  "▁Diver": 22384,
  "▁relief": 3769,
  "▁ru": 11960,
  "▁EUR": 12999,
  "▁Sch": 4691,
  "▁Commerce": 9127,
  "▁Receiving": 31994,
  "▁rails": 18535,
  "▁aperture": 17989,
  "▁Norton": 19641,
  "tify": 16562,
  "▁translucent": 24259,
  "▁Shrimp": 29503,
  "▁boundaries": 7694,
  "▁Tutorial": 23048,
  "▁songwriting": 29087,
  "Corp": 24136,
  "hora": 22157,
  "▁Discussion": 11219,
  "▁battles": 13914,
  "poly": 20971,
  "▁Retreat": 21785,
  "▁renovation": 8970,
  "mail": 2657,
  "but": 2627,
  "▁capacitor": 23468,
  "<0xAB>": 174,
  "▁pleased": 3622,
  "▁traction": 13753,
  "imon": 19611,
  "▁--": 1310,
  "18%": 29688,
  "kir": 14581,
  "▁2011,": 7764,
  "760": 24096,
  "uttered": 25090,
  "▁mitigate": 15108,
  "▁Race": 7476,
  "resolution": 21338,
  "▁Honey": 11116,
  "cular": 15076,
  "▁60%": 12911,
  "ening": 7423,
  "<0xF5>": 248,
  "▁Camping": 24398,
  "tex": 11508,
  "▁Vietnam": 7202,
  "▁committees": 15051,
  "▁Ash": 5778,
  "<0xE9>": 236,
  "▁rash": 17761,
  "▁folded": 15229,
  "▁verb": 11894,
  "z": 761,
  "▁Seventh": 27077,
  "▁sociology": 25637,
  "▁rich": 2130,
  "▁Bowen": 29341,
  "▁Esther": 26474,
  "▁thing": 658,
  "mpson": 28442,
  "▁buses": 9759,
  "Win": 16089,
  "▁Alloy": 24309,
  "▁dress": 2791,
  "▁bag": 2180,
  "▁metallic": 12412,
  "▁Nevertheless": 8843,
  "inspiring": 28072,
  "payment": 16994,
  "▁TLC": 27777,
  "▁disappointed": 7584,
  "▁unique": 872,
  "Med": 14717,
  "▁art": 920,
  "▁mattresses": 18101,
  "▁president": 2260,
  "▁November": 1607,
  "Support": 30622,
  "▁TX": 6930,
  "proper": 25094,
  "▁Ba": 3691,
  "erro": 22822,
  "▁weekly": 3870,
  "▁Mass": 5552,
  "▁Hau": 17779,
  "▁river": 3100,
  "▁Bangalore": 16200,
  "EAK": 27221,
  "▁quoted": 10738,
  "▁uncertainty": 9737,
  "▁Hmmm": 27378,
  "▁surroundings": 9396,
  "enol": 27850,
  "pledged": 23936,
  "logic": 10138,
  "▁reset": 8252,
  "▁conditioning": 7105,
  "XXX": 23191,
  "▁violate": 13687,
  "▁pacif": 27093,
  "▁gathering": 5949,
  "▁trans": 4598,
  "▁poor": 2204,
  "313": 28815,
  "▁Alien": 21738,
  "▁Citizens": 19404,
  "gate": 4296,
  "▁dem": 16726,
  "skinned": 31131,
  "▁Toledo": 26423,
  "▁adore": 12592,
  "▁Fountain": 22353,
  "▁continue": 1017,
  "▁Treasure": 19431,
  "▁gate": 6198,
  "▁Municipal": 14208,
  "consuming": 18242,
  "▁hooked": 14155,
  "3)": 8193,
  "▁hug": 13443,
  "▁2008)": 24484,
  "▁script": 4337,
  "▁skipped": 25004,
  "▁hemp": 17285,
  "▁ethics": 10865,
  "Subsequently": 26501,
  "▁Happy": 4174,
  "▁description": 3290,
  "rier": 14209,
  "▁emergent": 31652,
  "<0xE7>": 234,
  "▁Disease": 9624,
  "▁calls": 2456,
  "▁Ceramic": 19527,
  "▁Emmanuel": 26165,
  "woman": 12098,
  "▁Would": 3784,
  "▁KY": 16103,
  "ept": 8591,
  "[/": 16535,
  "▁Baron": 23834,
  "astro": 15516,
  "4.9": 22884,
  "▁serene": 21868,
  "▁trace": 8135,
  "▁recieve": 28707,
  "▁haha": 17282,
  "▁farms": 10687,
  "break": 12768,
  "-05": 15646,
  "▁Dining": 9012,
  "▁trending": 20716,
  "▁installment": 13154,
  "▁damp": 10791,
  "▁mahogany": 28750,
  "motivated": 31164,
  "▁1963": 16463,
  "Full": 25179,
  "▁preseason": 28354,
  "foot": 5009,
  "▁economically": 16553,
  "▁donation": 6583,
  "▁Jar": 13196,
  "▁arriving": 10062,
  "▁intervals": 13694,
  "moti": 17920,
  "▁Virtual": 8224,
  "▁Tahoe": 25316,
  "fest": 10539,
  "▁Horizontal": 30978,
  "▁offering": 1508,
  "▁Harry": 6844,
  "▁fighter": 14815,
  "▁fungal": 27118,
  "▁fermented": 25901,
  "▁Lo": 2591,
  "▁glory": 8416,
  "▁wildlife": 5998,
  "▁Andrew": 4371,
  "0.5": 19051,
  "▁soothe": 20392,
  "linger": 13629,
  "▁archaeologist": 29100,
  "tip": 13660,
  "▁Austen": 30161,
  "▁Veterans": 13238,
  "▁kinds": 3134,
  ">": 2796,
  "▁Dickens": 28480,
  "▁Few": 14256,
  "505": 27765,
  "zy": 5291,
  "▁foods": 3269,
  "`": 7272,
  "▁Check": 1669,
  "▁weaker": 19291,
  "▁astronomical": 28917,
  "distribution": 28528,
  "▁Free": 1345,
  "HD": 9434,
  "▁threads": 12372,
  "▁LE": 10334,
  "▁louder": 25755,
  "▁MAR": 14186,
  "ylon": 25380,
  "▁infringe": 25872,
  "▁chloride": 25325,
  "▁Waterfront": 29356,
  "▁pharmaceutical": 9293,
  "Spacious": 25008,
  "▁images": 1339,
  "<extra_id_36>": 32063,
  "special": 14674,
  "▁Part": 2831,
  "▁Argentine": 28115,
  "▁Oman": 23875,
  "NN": 10192,
  "▁Deputy": 11478,
  "▁BB": 12472,
  "pan": 5083,
  "▁#6": 24912,
  "▁experiences": 2158,
  "static": 17817,
  "▁Sri": 6395,
  "▁remix": 23263,
  "▁Suite": 9863,
  "ick": 3924,
  "▁Geo": 8609,
  "▁circumference": 29622,
  "<0x7D>": 128,
  "▁corps": 19053,
  "▁maneuver": 16853,
  "▁Identifie": 31493,
  "bounced": 30276,
  "uca": 20692,
  "megapixel": 24256,
  "erty": 13846,
  "▁Beatles": 21264,
  "duly": 26486,
  "▁washing": 6052,
  "▁ordinance": 16760,
  "▁wh": 9718,
  "▁create": 626,
  "found": 13583,
  "▁violations": 12062,
  "nge": 10810,
  "▁gravy": 23405,
  "▁porch": 9428,
  "▁Thornton": 27531,
  "▁Officers": 16684,
  "Spring": 26450,
  "▁parmesan": 29679,
  "▁indoors": 14450,
  "▁jacket": 6922,
  "▁Limo": 26127,
  "▁decomposition": 31561,
  "▁nodes": 12204,
  "Family": 29448,
  "▁cage": 11235,
  "▁shareholder": 18396,
  "▁tagging": 28084,
  "▁stars": 3583,
  "▁adidas": 26445,
  "▁inventories": 29277,
  "▁implications": 8028,
  "▁holistic": 11356,
  "án": 12489,
  "<0x54>": 87,
  "induced": 9063,
  "▁Cherry": 14603,
  "▁increase": 975,
  "allah": 26599,
  "▁Must": 7886,
  "Right": 25032,
  "battling": 19146,
  "▁Milton": 19724,
  "▁coat": 5175,
  "locating": 15847,
  "▁frustration": 9678,
  "▁BP": 13728,
  "hectare": 31683,
  "▁synergy": 29376,
  "▁cutlery": 30393,
  "work": 2850,
  "▁email": 865,
  "▁appointments": 9789,
  "▁angel": 11488,
  "▁exactly": 1481,
  "Current": 31610,
  "▁24/7": 8782,
  "▁Pun": 15716,
  "▁88": 11398,
  "▁miners": 21904,
  "▁fruity": 22607,
  "Manufacture": 31598,
  "yard": 6432,
  "▁Default": 23317,
  "▁masterful": 29477,
  "▁hopeful": 15253,
  "▁poet": 9254,
  "▁Scientific": 12798,
  "ful": 1867,
  "▁Deluxe": 18061,
  "▁positive": 1444,
  "Particularly": 25134,
  "▁assessments": 10744,
  "▁virus": 6794,
  "▁Prop": 16248,
  "act": 4264,
  "-9": 6579,
  "▁challenge": 1689,
  "BU": 12477,
  "▁veterinarian": 18927,
  "▁mutant": 19173,
  "▁Drawing": 15029,
  "▁attach": 7809,
  "▁bronze": 10087,
  "▁blush": 21640,
  "▁Hilton": 15745,
  "▁counsellor": 28610,
  "Compared": 18769,
  "▁Walter": 10967,
  "▁Disorder": 16815,
  "▁2015.": 4283,
  "▁lemon": 5645,
  "▁Facial": 26634,
  "▁Applications": 9646,
  "▁truck": 3015,
  "alone": 18266,
  "▁interviewing": 21055,
  "▁Cluster": 22816,
  "ARS": 19828,
  "tec": 9869,
  "▁job": 689,
  "▁straw": 14409,
  "▁Fowler": 28615,
  "▁Gear": 11774,
  "lator": 13148,
  "▁temple": 7282,
  "COUNT": 23778,
  "▁boarding": 14018,
  "▁immune": 6228,
  "▁fin": 9662,
  "▁gaze": 16398,
  "▁Cambridge": 7155,
  "week": 6186,
  "▁06": 10629,
  "▁Forces": 15544,
  "▁articles": 2716,
  "▁solid": 2010,
  "▁net": 2525,
  "lion": 12610,
  "▁Memory": 12903,
  "▁aligned": 11845,
  "▁Vita": 20778,
  "880": 27149,
  "▁purification": 24964,
  "▁liabilities": 16802,
  "▁HOA": 27663,
  "▁mono": 6204,
  "rim": 4990,
  "▁Maison": 28119,
  "El": 12976,
  "▁LAW": 24974,
  "▁Adding": 14130,
  "▁CAP": 20706,
  "chrom": 14811,
  "▁indispensable": 22798,
  "▁motive": 14162,
  "▁Cha": 5109,
  "▁Orchid": 31359,
  "▁Del": 5019,
  "▁component": 3428,
  "-55": 20916,
  "▁WA": 6670,
  "▁affidavit": 27480,
  "it": 586,
  "annual": 24842,
  "fresh": 20827,
  "gal": 6835,
  "▁Bahamas": 25085,
  "▁oath": 25518,
  "▁pregnancy": 6257,
  "▁Amenities": 30982,
  "hine": 14295,
  "▁tuberculosis": 28319,
  "▁athlete": 11720,
  "▁soaring": 23008,
  "▁mosquitoes": 26107,
  "165": 19137,
  "shi": 6084,
  "▁bits": 8741,
  "▁hope": 932,
  "▁sha": 12414,
  "Funnels": 25476,
  "▁omission": 18785,
  "▁results": 793,
  "▁dopamine": 29461,
  "▁sesame": 23092,
  "ted": 2017,
  "▁dilemma": 16039,
  "▁month": 860,
  "▁Ecology": 26322,
  "kill": 9144,
  "ranked": 24288,
  "tile": 9051,
  "whipped": 19201,
  "▁major": 882,
  "▁commitments": 14058,
  "▁teeth": 2974,
  "▁Chemical": 11648,
  "▁REALTORS": 31430,
  "▁Friend": 17209,
  "pong": 21710,
  "▁Bulldog": 22003,
  "13%": 28524,
  "▁Conf": 18779,
  "▁memories": 4090,
  "thinking": 20980,
  "▁moisturizing": 28069,
  "▁cafe": 12203,
  "gan": 3550,
  "▁solicitor": 18074,
  "▁James": 2188,
  "▁construction": 1425,
  "▁condemnation": 29942,
  "PLACE": 27963,
  "INA": 19697,
  "▁Pine": 10171,
  "<0x7F>": 130,
  "expert": 27493,
  "▁deal": 954,
  "wall": 7829,
  "▁hail": 12527,
  "▁walmart": 22564,
  "▁world": 459,
  "▁excerpt": 18743,
  "▁Pipeline": 27582,
  "▁suggestion": 8765,
  "▁constituents": 21837,
  "▁Speech": 18283,
  "▁miraculous": 27415,
  "label": 21104,
  "▁motherhood": 28367,
  "▁connectors": 18451,
  "▁yum": 28660,
  "▁Affiliation": 31722,
  "dyed": 25158,
  "▁Lyft": 30325,
  "▁renamed": 20733,
  "birth": 24056,
  "▁software": 904,
  "app": 4409,
  "▁vanity": 10612,
  "author": 11953,
  "▁detailing": 13407,
  "▁milk": 2833,
  "▁perspectives": 10387,
  "▁stamina": 26015,
  "▁57": 9154,
  "rise": 9147,
  "PT": 8080,
  "thread": 27173,
  "TRO": 18862,
  "▁mood": 4620,
  "▁Titus": 31995,
  "▁licence": 9992,
  "▁packets": 18376,
  "sacrificing": 23150,
  "▁Something": 8634,
  "▁drawn": 4734,
  "▁reef": 13577,
  "▁mph": 11370,
  "▁audio": 2538,
  "▁Australian": 2964,
  "Not": 12982,
  "▁happiest": 28238,
  "▁intruder": 28599,
  "▁schedules": 11140,
  "UP": 9634,
  "slide": 26929,
  "longside": 28976,
  "▁manga": 21484,
  "▁listen": 2729,
  "▁move": 895,
  "▁Tunisia": 24780,
  "▁NT": 12470,
  "Among": 5427,
  "▁hospitalized": 28634,
  "▁Toys": 21041,
  "▁Jer": 18258,
  "lies": 7468,
  "▁requests": 4313,
  "▁shades": 7419,
  "▁blocks": 4332,
  "▁mission": 2136,
  "▁Byzantine": 30006,
  "▁rankings": 10939,
  "▁suture": 28264,
  "called": 6944,
  "▁Athletic": 13118,
  "▁committee": 3731,
  "▁allegiance": 29556,
  "▁jade": 30145,
  "▁Harmon": 25013,
  "▁haunted": 21955,
  "shaved": 30452,
  "▁whose": 2016,
  "▁Groove": 30155,
  "▁enormous": 6524,
  "▁displac": 31972,
  "▁conclude": 12178,
  "cini": 21591,
  "▁total": 1053,
  "▁Representative": 14599,
  "▁statewide": 18845,
  "▁rhetoric": 15728,
  "Celebrating": 29435,
  "▁ethereal": 31135,
  "▁cancel": 6510,
  "▁Trailer": 19719,
  "▁ongoing": 3582,
  "▁Fusion": 18166,
  "▁Organizer": 26454,
  "▁ABC": 9987,
  "emotional": 31928,
  "cultural": 12479,
  "<0x33>": 54,
  "▁RF": 11780,
  "enter": 14828,
  "▁cocktail": 9328,
  "▁apology": 24729,
  "Track": 24628,
  "▁Stream": 11105,
  "▁flavours": 14229,
  "▁orphan": 23487,
  "▁bon": 10048,
  "225": 14279,
  "▁Orion": 28339,
  "▁cards": 1832,
  "▁renters": 25613,
  "▁payload": 23669,
  "▁Housing": 9384,
  "▁Chan": 10737,
  "▁episode": 3828,
  "▁grief": 12226,
  "▁gorge": 28542,
  "▁brought": 1660,
  "passion": 29676,
  "▁converting": 13962,
  "▁Consider": 6284,
  "für": 18072,
  "▁Pamela": 27418,
  "▁municipality": 19906,
  "▁ASEAN": 28323,
  "▁metropolis": 28154,
  "▁Fairfax": 27902,
  "OLD": 15755,
  "2009": 15735,
  "8%": 6348,
  "ас": 28796,
  "▁Football": 7826,
  "THESE": 29543,
  "reg": 13464,
  "▁patina": 31432,
  "▁coding": 10410,
  "▁claw": 18542,
  "▁Was": 5149,
  "▁Cut": 5739,
  "▁1979": 11594,
  "▁Dive": 24874,
  "333": 22007,
  "▁Addition": 28587,
  "▁newborn": 14063,
  "cold": 23260,
  "▁Strip": 15089,
  "▁bobb": 26267,
  "▁Mira": 18327,
  "▁rooms": 2148,
  "▁receivable": 29151,
  "▁blockbuster": 25648,
  "▁epithelial": 30669,
  "▁cease": 11554,
  "▁commandment": 26210,
  "▁perfectly": 2917,
  "▁Kap": 21761,
  "▁Binary": 20146,
  "parent": 11785,
  "▁novelty": 23518,
  "▁Trek": 14341,
  "▁accelerator": 23764,
  "assuring": 29880,
  "electric": 13192,
  "<0xFB>": 254,
  "executing": 17482,
  "▁Might": 15582,
  "GN": 12262,
  "▁Wars": 8479,
  "▁Growing": 15834,
  "▁2005.": 11542,
  "▁glide": 17605,
  "▁receptors": 19749,
  "fraction": 26864,
  "▁hoping": 4144,
  "rify": 20802,
  "▁said": 429,
  "▁Yay": 22732,
  "▁suffice": 24621,
  "▁fortune": 9930,
  "▁toxic": 8257,
  "les": 2697,
  "▁Eternal": 28765,
  "▁thread": 3711,
  "saving": 13045,
  "▁Cer": 9136,
  "▁Loren": 27949,
  "▁fav": 28438,
  "▁Snapchat": 23182,
  "▁substantial": 5084,
  "adventure": 30150,
  "▁Jeffrey": 17827,
  "▁Soldier": 20424,
  "▁operation": 2262,
  "▁earning": 7816,
  "visual": 21831,
  "▁Monterey": 26300,
  "▁sinister": 28508,
  "loved": 18467,
  "tics": 7785,
  "▁$20": 8692,
  "▁sponsor": 9070,
  "▁poke": 18803,
  "▁hurt": 3909,
  "▁Include": 18500,
  "▁Polo": 21900,
  "▁rose": 4286,
  "▁Timothy": 18004,
  "▁Librarian": 30117,
  "▁Notice": 8773,
  "▁snowfall": 29099,
  "▁highlighted": 8364,
  "▁achieved": 3680,
  "▁Afri": 29191,
  "▁Quant": 20142,
  "▁Cartoon": 27235,
  "▁undesirable": 24559,
  "▁Stakes": 30905,
  "▁Buffalo": 11493,
  "▁witnessed": 11358,
  "▁stipend": 31287,
  "▁profile": 2508,
  "▁identification": 6530,
  "▁worried": 6316,
  "▁Years": 8941,
  "▁crossed": 9782,
  "▁Olive": 14764,
  "▁nitri": 27065,
  "chol": 11809,
  "ward": 3231,
  "▁Switzerland": 8706,
  "▁glitch": 28224,
  "▁802.11": 29375,
  "▁FTP": 23609,
  "▁Traditional": 10956,
  "▁soloist": 28280,
  "ation": 910,
  "▁talk": 1217,
  "▁Weber": 23224,
  "▁communications": 3901,
  "▁Krishna": 19211,
  "<0xE2>": 229,
  "▁Velcro": 31168,
  "nature": 25480,
  "vote": 25716,
  "▁shortcut": 15342,
  "▁organizers": 16163,
  "▁Crusher": 5168,
  "▁Water": 2162,
  "▁dormant": 27845,
  "▁delivered": 2668,
  "▁Disneyland": 23908,
  "curated": 14917,
  "768": 26074,
  "▁Killer": 25854,
  "▁adaptive": 16807,
  "▁Jasper": 25973,
  "▁Aaron": 10600,
  "▁sequence": 5488,
  "▁synonym": 28057,
  "▁Sol": 7177,
  "▁databases": 11035,
  "▁Direct": 6373,
  "▁Gregory": 18269,
  "▁horde": 30490,
  "▁sucker": 25945,
  "YP": 22759,
  "▁Irving": 24619,
  "▁Archive": 16063,
  "▁Tre": 7586,
  "▁Pillow": 23415,
  "▁meantime": 11034,
  "▁plight": 27281,
  "▁guru": 18855,
  "George": 31246,
  "▁renew": 13074,
  "▁grenade": 30285,
  "▁Mead": 26222,
  "▁Lastly": 13249,
  "<extra_id_86>": 32013,
  "▁Summer": 4137,
  "▁sind": 29685,
  "OW": 11414,
  "▁stretching": 13164,
  "▁empty": 4288,
  "▁Mun": 10140,
  "▁tubes": 12742,
  "▁Rugby": 19354,
  "▁Kettle": 30843,
  "ار": 25465,
  "▁disappointing": 14524,
  "та": 23166,
  "▁consuming": 9617,
  "cons": 12648,
  "▁2018,": 4718,
  "▁kick": 4036,
  "▁Facilities": 20663,
  "▁VAT": 13202,
  "▁enrolled": 9968,
  "▁parallel": 6111,
  "▁Anything": 14213,
  "lak": 20013,
  "▁maintaining": 4258,
  "▁aspire": 20688,
  "▁cycle": 3133,
  "▁Nicaragua": 26862,
  "▁halo": 21413,
  "though": 12850,
  "▁exile": 21093,
  "▁Reply": 24337,
  "▁Coke": 26459,
  "▁deteriorate": 27725,
  "pal": 6972,
  "GS": 9248,
  "▁Craft": 7710,
  "▁tangible": 14516,
  "▁Ronnie": 29763,
  "aldo": 23066,
  "334": 28518,
  "▁alum": 24732,
  "▁4.5": 13454,
  "▁Dor": 7927,
  "▁respond": 2872,
  "▁altogether": 11199,
  "▁weddings": 12237,
  "▁Recording": 20281,
  "nabi": 26630,
  "ogenic": 16633,
  "▁printed": 3635,
  "▁blot": 23782,
  "▁(2005)": 22456,
  "▁furniture": 1751,
  "▁breed": 6445,
  "Chi": 17607,
  "▁canada": 12706,
  "on": 390,
  "▁Dinner": 12481,
  "▁Saratoga": 31935,
  "▁Comparative": 27801,
  "▁stops": 7068,
  "▁Southeast": 12110,
  "developed": 18368,
  "macrophage": 28756,
  "▁drizzle": 20299,
  "▁pinch": 12908,
  "rach": 18280,
  "▁utility": 4590,
  "tainment": 17122,
  "▁hours": 757,
  "▁Aboriginal": 19629,
  "kitchen": 30176,
  "obliged": 20026,
  "▁picturesque": 14300,
  "▁poison": 14978,
  "intuitive": 31027,
  "▁Sacramento": 15030,
  "▁Webb": 21143,
  "▁Mod": 9447,
  "▁burst": 10144,
  "▁exploded": 22772,
  "Make": 18058,
  "▁oils": 6826,
  "▁empowering": 16722,
  "▁feta": 30354,
  "630": 22115,
  "▁Goals": 20993,
  "▁thirty": 7959,
  "▁advertise": 11503,
  "▁Visit": 3964,
  "▁supermarket": 10955,
  "540": 22639,
  "▁textual": 26373,
  "▁competence": 14355,
  "receptor": 31478,
  "▁Shark": 17026,
  "▁fonts": 15626,
  "▁berth": 25737,
  "▁drum": 8084,
  "▁Awards": 5117,
  "▁ba": 5226,
  "▁3/4\"": 26520,
  "▁inputs": 13661,
  "▁slam": 21768,
  "▁15%": 11024,
  "▁Ap": 6324,
  "▁banquet": 19726,
  "▁intricate": 13156,
  "▁sunrise": 18278,
  "▁Bath": 8632,
  "▁Security": 2701,
  "vis": 4587,
  "▁the": 260,
  "▁restored": 8810,
  "▁Williams": 4385,
  "▁budgets": 14004,
  "▁Becker": 27401,
  "▁spectacle": 21266,
  "▁scholarship": 7459,
  "<extra_id_78>": 32021,
  "▁Harriet": 29726,
  "▁Listing": 13998,
  "▁Loans": 16230,
  "▁malware": 12321,
  "▁Legend": 12380,
  "▁military": 2175,
  "▁widely": 3888,
  "▁together": 623,
  "▁Goose": 25177,
  "▁stumble": 22597,
  "lar": 3933,
  "▁PHP": 11893,
  "▁profiles": 7152,
  "ace": 4122,
  "solute": 22751,
  "▁demeanor": 31187,
  "▁teamwork": 20519,
  "▁toxicity": 22166,
  "Mob": 30284,
  "▁anticipating": 26223,
  "▁Standards": 11216,
  "ged": 8273,
  "▁bureau": 15588,
  "▁card": 961,
  "▁Patrick": 7147,
  "▁Israeli": 6753,
  "▁Payment": 7913,
  "<0x93>": 150,
  "▁plug": 4737,
  "▁conc": 17243,
  "▁Umbrella": 31846,
  "▁Embassy": 19223,
  "KING": 18736,
  "▁Pricing": 20954,
  "▁support": 532,
  "industrial": 28391,
  "19": 3135,
  "▁uninsured": 27741,
  "atty": 21849,
  "▁surrounding": 2855,
  "▁navigate": 6283,
  "▁deplete": 23922,
  "official": 23257,
  "▁Jakarta": 26469,
  "▁1%": 11879,
  "▁clicking": 4996,
  "hovering": 30073,
  "rene": 11903,
  "▁sandwiches": 13866,
  "eiro": 25024,
  "▁here": 442,
  "▁2004.": 12840,
  "30": 2527,
  "▁hierarchy": 18868,
  "etched": 19604,
  "▁purse": 13850,
  "Linguistic": 29338,
  "▁trope": 29494,
  "▁Loved": 20643,
  "▁suffering": 4100,
  "theism": 31074,
  "▁fortress": 26219,
  "▁10": 531,
  "▁Territory": 22719,
  "▁talent": 3512,
  "▁vigilant": 24713,
  "▁volcanoes": 30360,
  "▁increasing": 2420,
  "▁Nikki": 27883,
  "RES": 11843,
  "raig": 31431,
  "▁friendships": 17425,
  "▁Trouble": 25175,
  "▁Strawberry": 25792,
  "▁sidebar": 22587,
  "<0x67>": 106,
  "granting": 25349,
  "AC": 4528,
  "nnel": 15002,
  "▁volume": 2506,
  "▁Agri": 25202,
  "▁800-3": 20223,
  "▁gets": 1971,
  "▁rings": 6983,
  "▁Wells": 16564,
  "trackback": 22211,
  "▁large": 613,
  "▁Cadet": 30863,
  "▁USE": 15204,
  "▁Pick": 5920,
  "▁red": 1226,
  "▁cleanse": 16339,
  "▁avoidance": 24215,
  "▁license": 2820,
  "▁homes": 2024,
  "▁staying": 4621,
  "▁taste": 2142,
  "▁radiation": 8015,
  "pont": 23895,
  "▁cared": 15919,
  "▁duct": 10995,
  "▁began": 1448,
  "▁don": 443,
  "▁in": 268,
  "▁squirrel": 19879,
  "ISS": 15403,
  "▁crushers": 16238,
  "▁comfort": 1959,
  "list": 3678,
  "!!": 1440,
  "▁expand": 3160,
  "▁savor": 25837,
  "▁Corporation": 4768,
  "▁SCHOOL": 31409,
  "▁Banking": 15490,
  "▁blogging": 7817,
  "▁disappointment": 13073,
  "▁cooked": 5642,
  "▁catch": 2651,
  "▁precaution": 29070,
  "▁crucif": 27685,
  "▁bombard": 24812,
  "▁Sets": 14929,
  "els": 8394,
  "Chicago": 31760,
  "▁Batman": 16583,
  "<0x01>": 4,
  "▁gallons": 17222,
  "ating": 1937,
  "▁Gibraltar": 29276,
  "▁Document": 9436,
  "▁Boat": 11468,
  "▁thrill": 15181,
  "▁motivate": 12143,
  "pist": 21727,
  "4-5": 15352,
  "▁Tutor": 24000,
  "▁cryptocurrency": 13303,
  "▁travelled": 14675,
  "▁flare": 14958,
  "▁2018)": 23686,
  "▁SA": 5530,
  "▁McC": 6256,
  "▁folder": 5526,
  "▁dunk": 29219,
  "▁vain": 24169,
  "▁Nordic": 19455,
  "40": 3690,
  "▁Stan": 11855,
  "pit": 9522,
  "▁Jammu": 29932,
  "▁difficulties": 6779,
  "▁loyalty": 9023,
  "▁met": 1894,
  "▁elevated": 10487,
  "▁Rub": 12623,
  "▁status": 2075,
  "▁Canterbury": 25189,
  "▁gun": 3475,
  "▁survey": 2743,
  "▁Bonus": 11095,
  "▁Knit": 23147,
  "▁abide": 17186,
  "▁Jesuit": 29315,
  "▁appears": 2596,
  "9.2": 24871,
  "which": 2836,
  "▁Arcade": 27472,
  "▁©": 4683,
  "▁Teacher": 11167,
  "▁Replace": 19398,
  "▁java": 23298,
  "▁disappoint": 19040,
  "▁2.5": 7119,
  "▁testimony": 11264,
  "ми": 26067,
  "▁teaches": 7888,
  "▁interfaces": 14642,
  "▁UT": 12931,
  "▁1850": 25269,
  "▁Hat": 8219,
  "mir": 6503,
  "User": 24094,
  "▁ceilings": 12491,
  "▁gaps": 10377,
  "▁voices": 8895,
  "▁street": 2192,
  "hurst": 16378,
  "▁fires": 13250,
  "▁turkey": 10204,
  "her": 2335,
  "▁Wax": 24061,
  "▁liquid": 3461,
  "▁bellow": 30471,
  "odge": 24107,
  "▁acronym": 24530,
  "▁ambitious": 10803,
  "▁linking": 11438,
  "▁savory": 22100,
  "▁Moment": 17729,
  "▁Coming": 11799,
  "▁Mar": 2092,
  "▁dissertation": 9364,
  "▁Pope": 12267,
  "▁mid": 1951,
  "appear": 29116,
  "▁smoothly": 8960,
  "▁limiting": 11898,
  "▁metrics": 10869,
  "▁subsequently": 9142,
  "▁analog": 13259,
  "▁osteoporosis": 29468,
  "▁ME": 5978,
  "barred": 26260,
  "▁biologist": 25921,
  "▁multinational": 19596,
  "9": 1549,
  "▁opaque": 24643,
  "▁Chrome": 8626,
  "Filename": 27918,
  "▁beds": 5852,
  "insisted": 17757,
  "▁Said": 22865,
  "advance": 31420,
  "▁Wilhelm": 30915,
  "▁Gravity": 26312,
  "▁marry": 15115,
  "corn": 10638,
  "um": 1402,
  "▁bell": 10308,
  "▁Harvest": 18232,
  "5\"": 15450,
  "▁Monument": 21086,
  "▁Ethical": 29487,
  "▁Submission": 22031,
  "▁airfare": 25025,
  "▁packing": 8411,
  "▁were": 351,
  "▁suspension": 7306,
  "▁pronounced": 16155,
  "▁socks": 11110,
  "▁dentistry": 16290,
  "▁crossing": 8373,
  "▁Innovation": 7804,
  "▁sauté": 24419,
  "▁and": 263,
  "▁linked": 3730,
  "▁floors": 5174,
  "▁slim": 8740,
  "▁epilepsy": 25488,
  "▁Gha": 20725,
  "ogram": 15063,
  "▁neighbour": 22397,
  "▁Yellow": 9287,
  "▁angular": 25088,
  "▁Avi": 17582,
  "HSA": 27627,
  "(1)": 9335,
  "language": 18978,
  "indi": 15889,
  "▁reversed": 18460,
  "▁Pratt": 27261,
  "cid": 10354,
  "▁absent": 11596,
  "3.7": 19395,
  "▁pilgrimage": 24464,
  "ATION": 7901,
  "▁Sk": 9181,
  "▁businessman": 22153,
  "▁conform": 11941,
  "▁loudspeaker": 30897,
  "▁confuse": 21107,
  "▁organisms": 16632,
  "▁quench": 30555,
  "▁LIFE": 21989,
  "▁deter": 17426,
  "▁expenditure": 15202,
  "▁72": 6705,
  "▁arrive": 3624,
  "▁periods": 5822,
  "▁Kle": 23700,
  "pian": 21412,
  "▁1922": 26772,
  "smoke": 29860,
  "positive": 21147,
  "▁fizz": 28916,
  "▁2001.": 14735,
  "▁Block": 7642,
  "▁leaks": 14176,
  "▁Roller": 17874,
  "ered": 10537,
  "5,": 11120,
  "▁RAID": 27816,
  "▁Insulation": 25657,
  "▁highlight": 4684,
  "▁Nylon": 29646,
  "stone": 3375,
  "▁appetizer": 19097,
  "cas": 13429,
  "LD": 7490,
  "▁microorganisms": 28853,
  "▁lessen": 17034,
  "▁allocation": 12041,
  "▁Portal": 15242,
  "▁quick": 1476,
  "▁NP": 15170,
  "grade": 6441,
  "▁2022": 23690,
  "▁specialist": 3777,
  "pple": 13563,
  "▁whack": 31454,
  "▁teddy": 30856,
  "▁deserve": 6362,
  "▁twitter": 13410,
  "▁48": 3858,
  "▁lunch": 2699,
  "financial": 28824,
  "<0x2F>": 50,
  "▁constructing": 17304,
  "▁Breath": 17082,
  "▁reinforced": 14877,
  "▁Pitch": 21352,
  "▁Process": 8346,
  "▁trying": 1041,
  "▁perform": 1989,
  "▁radioactive": 25279,
  "▁Martin": 3340,
  "▁Oil": 4188,
  "▁expiration": 17884,
  "▁Ore": 10393,
  "▁Methodist": 17430,
  "cellular": 22040,
  "▁mathematics": 11617,
  "▁1:1": 21636,
  "▁document": 2200,
  "▁foodie": 26044,
  "▁bum": 22444,
  "▁HTC": 18150,
  "▁Creativity": 27880,
  "▁Links": 15898,
  "▁Morocco": 18454,
  "▁update": 1893,
  "▁Ricardo": 30972,
  "▁Answers": 19037,
  "ados": 18777,
  "▁anger": 8032,
  "▁Chow": 25224,
  "▁athletes": 6459,
  "▁brightness": 15712,
  "▁confess": 18969,
  "fact": 15796,
  "wiping": 24878,
  "F": 729,
  "tresses": 30578,
  "▁105": 14756,
  "▁analytics": 6933,
  "▁obstacle": 16695,
  "▁Roulette": 23881,
  "▁brutal": 13209,
  "▁severely": 13870,
  "▁mat": 6057,
  "▁bug": 5662,
  "▁slit": 22771,
  "▁legitimate": 7634,
  "▁spectra": 29802,
  "Stream": 27714,
  "▁undeniable": 27605,
  "ün": 20408,
  "▁Communion": 28254,
  "<0x71>": 116,
  "wering": 31666,
  "▁Sc": 6945,
  "trophic": 27076,
  "▁Saudi": 7937,
  "pil": 12748,
  "▁developer": 5373,
  "friendliness": 29249,
  "▁amp": 6339,
  "▁Pierre": 18284,
  "▁Daisy": 24106,
  "▁successes": 14728,
  "▁daring": 22638,
  "▁CAR": 11279,
  "TF": 9973,
  "All": 7465,
  "▁Niagara": 21687,
  "▁unnoticed": 26188,
  "▁Sprint": 18137,
  "▁Delivery": 9900,
  "nurtured": 31570,
  "▁Position": 15543,
  "▁Vanguard": 28692,
  "▁1400": 25553,
  "▁Israel": 2996,
  "▁2019.": 3514,
  "▁poetry": 7098,
  "▁defense": 3232,
  "▁Understanding": 11925,
  "▁pancreatic": 28304,
  "▁chlorine": 23614,
  "▁joints": 10070,
  "party": 6726,
  "▁scent": 8205,
  "▁imperative": 12448,
  "▁goodwill": 25444,
  "▁hair": 1236,
  "▁Stephanie": 16912,
  "▁instability": 21966,
  "automating": 31515,
  "▁markets": 2565,
  "▁Taiwanese": 30618,
  "▁War": 1790,
  "▁tenth": 20851,
  "17%": 29255,
  "ising": 4754,
  "▁valve": 7612,
  "▁emp": 16346,
  "▁cu": 9004,
  "▁nook": 22863,
  "HAN": 16069,
  "Jan": 22532,
  "▁ratio": 4519,
  "▁Cosmetic": 19993,
  "English": 20175,
  "▁Paolo": 31709,
  "▁ripping": 29068,
  "▁safely": 5262,
  "▁batting": 20676,
  "phobic": 24610,
  "ably": 3921,
  "Sha": 14621,
  "uma": 8817,
  "▁Three": 3771,
  "▁Unlike": 5994,
  "▁Forest": 5307,
  "▁Astro": 13143,
  "recognisable": 31891,
  "▁standards": 1986,
  "▁Rand": 18629,
  "▁Verde": 24884,
  "nes": 3111,
  "▁Raz": 19501,
  "guitar": 31998,
  "▁Mile": 12954,
  "ULT": 23145,
  "▁Clark": 7337,
  "▁loft": 11457,
  "▁tra": 10065,
  "oriented": 6148,
  "▁Anderson": 7688,
  "richest": 26728,
  "itian": 24206,
  "▁slower": 10875,
  "▁ROCK": 28800,
  "▁Raymond": 16806,
  "DC": 5536,
  "▁widespread": 9420,
  "▁Airlines": 11883,
  "▁expense": 5619,
  "▁prescription": 5392,
  "▁Santa": 3694,
  "▁courage": 9411,
  "▁union": 5848,
  "▁enclave": 31930,
  "▁statistically": 20564,
  "tari": 19714,
  "nell": 11333,
  "▁past": 747,
  "▁weapons": 5495,
  "▁Minimal": 25598,
  "▁shingle": 18485,
  "▁Soup": 21946,
  "▁adoption": 6369,
  "▁autistic": 28943,
  "▁mini": 3021,
  "▁Bulletin": 23106,
  "▁attorneys": 7367,
  "▁LORD": 16659,
  "▁airline": 7660,
  "polluted": 29125,
  "▁Complaint": 25897,
  "▁Andersen": 30734,
  "▁anybody": 8294,
  "▁agility": 21674,
  "FER": 23996,
  ":18": 16779,
  "▁BE": 4710,
  "▁partnerships": 9056,
  "YL": 24634,
  "▁antioxidant": 18018,
  "▁beetle": 24492,
  "▁Ace": 12958,
  "average": 24910,
  "ACS": 19807,
  "▁Iran": 5551,
  "▁incidental": 21193,
  "▁Mint": 15222,
  "outlining": 25618,
  "▁Grocery": 31991,
  "eye": 9825,
  "emu": 27270,
  "▁thereafter": 16057,
  "▁roots": 5827,
  "▁mostly": 2614,
  "▁packed": 4866,
  "rack": 18651,
  "▁brass": 8916,
  "▁thermostat": 15493,
  "▁Protective": 29306,
  "▁Seven": 8838,
  "▁envelope": 9460,
  "iter": 14391,
  "Loc": 25454,
  "▁1.4": 15513,
  "▁Oral": 19646,
  "▁blister": 21675,
  "▁adverse": 8313,
  "▁revisions": 20914,
  "▁elected": 5538,
  "▁Kali": 23087,
  "▁physiotherapy": 31988,
  "▁Serious": 27580,
  "▁manage": 1702,
  "▁dog": 1571,
  "60,000": 18424,
  "▁space": 688,
  "▁intrinsic": 21777,
  "▁Saturday": 1564,
  "▁Test": 4094,
  "▁tell": 1001,
  "▁appoint": 16012,
  "Dirty": 24513,
  "▁Dress": 10197,
  "▁furnish": 18524,
  "▁occupy": 17586,
  "дл": 31165,
  "▁Wilson": 6780,
  "▁maintained": 4643,
  "▁accustomed": 18262,
  "▁arbitrator": 27460,
  "▁Derek": 18247,
  "▁Fish": 8114,
  "▁applicability": 31892,
  "▁ferry": 13618,
  "▁Loop": 16526,
  "REA": 14921,
  "▁Scout": 10896,
  "▁volunteered": 22231,
  "/19": 13157,
  "▁Initial": 18794,
  "modulate": 29474,
  "▁Cry": 19491,
  "▁reforms": 13420,
  "everything": 29900,
  "▁Empire": 8260,
  "▁chord": 13109,
  "▁Truck": 9408,
  "Of": 18117,
  "Step": 25248,
  "USE": 22466,
  "▁tassel": 31670,
  "UG": 13915,
  "▁Top": 2292,
  "▁achieve": 1694,
  "▁refresh": 10351,
  "▁Helsinki": 25197,
  "▁Massage": 15928,
  "<0x4B>": 78,
  "▁attendees": 8944,
  "<extra_id_92>": 32007,
  "▁sightseeing": 19514,
  "▁incarnation": 25519,
  "▁compressor": 15622,
  "▁any": 352,
  "▁Organisation": 17081,
  "▁wasn": 1750,
  "▁susceptible": 16259,
  "▁housekeeping": 27374,
  "▁demolition": 18830,
  "ANA": 16739,
  "rheumatoid": 31091,
  "▁riot": 18858,
  "▁Ker": 11987,
  "▁checkout": 10095,
  "▁hazard": 14399,
  "▁harsh": 7766,
  "▁conventional": 5052,
  "▁Hollow": 21315,
  "▁Screw": 24954,
  "▁blame": 7126,
  "section": 9949,
  "▁worry": 2644,
  "▁Mash": 23396,
  "▁inverter": 23469,
  "challenge": 28939,
  "seat": 15397,
  "▁Occasionally": 22699,
  "▁proportions": 19755,
  "▁Industries": 12498,
  "▁ANY": 7435,
  "▁Icon": 19865,
  "wealth": 31961,
  "▁RC": 10713,
  "▁Kim": 5323,
  "▁crisp": 8220,
  "▁accusation": 19379,
  "Shortly": 21944,
  "▁restraint": 20119,
  "▁Telecom": 23954,
  "▁wrong": 1528,
  "▁cedar": 18953,
  "▁Bonn": 23977,
  "▁whenever": 3733,
  "▁CSS": 13789,
  "Port": 15248,
  "W": 925,
  "▁planner": 14055,
  "▁rediscover": 26723,
  "5.9": 25377,
  "wort": 29865,
  "▁confirm": 4167,
  "furthermore": 22465,
  "▁prefer": 2532,
  "▁interest": 987,
  "▁Cheap": 8834,
  "▁more": 311,
  "▁Element": 21113,
  "▁DE": 4761,
  "▁5-": 7182,
  "▁Sunday": 1547,
  "artist": 30648,
  "▁spindle": 25237,
  "shape": 26989,
  "▁listeners": 16285,
  "\")": 7870,
  "hat": 4095,
  "▁mixture": 3573,
  "▁Fly": 12981,
  "Foot": 31532,
  "▁Flowers": 14181,
  "<0x45>": 72,
  "▁verbal": 12326,
  "ving": 5353,
  "▁trampoline": 27876,
  "entrepreneurship": 16580,
  "▁functionalities": 28073,
  "▁elastic": 13011,
  "▁human": 944,
  "▁Judah": 28376,
  "▁commander": 15072,
  "meaning": 21541,
  "▁slippery": 23433,
  "MAX": 14589,
  "method": 31919,
  "ger": 2342,
  "▁birth": 2880,
  "▁premier": 7658,
  "▁Starbucks": 16918,
  "▁Dating": 9744,
  "Frank": 27386,
  "Trade": 24551,
  "▁moisturizer": 22855,
  "▁cry": 7960,
  "▁Advisor": 11454,
  "▁schematic": 19920,
  "▁defended": 20799,
  "oxide": 23390,
  "▁boast": 5780,
  "AIA": 27913,
  "▁belongs": 10706,
  "▁assertive": 30581,
  "▁conduit": 24353,
  "▁lift": 4318,
  "▁Midwest": 15629,
  "▁trend": 3491,
  "▁headaches": 13969,
  "▁65": 5492,
  "zie": 12474,
  "▁Aerospace": 26878,
  "Last": 26505,
  "▁Thur": 22165,
  "▁influences": 10418,
  "▁Max": 4968,
  "▁conflict": 3927,
  "▁exotic": 9677,
  "MD": 9504,
  "▁cubic": 13075,
  "THEY": 27054,
  "▁nurse": 7257,
  "▁Gru": 17284,
  "▁prevalent": 15840,
  "▁vertical": 5815,
  "ما": 29603,
  "▁mastery": 23138,
  "▁Knox": 27024,
  "▁American": 832,
  "▁Anthony": 8226,
  "▁protection": 1659,
  "710": 25678,
  "▁nectar": 28157,
  "▁cold": 1792,
  "7)": 9989,
  "▁prohibit": 12744,
  "▁artistic": 6047,
  "▁Py": 11917,
  "▁unconventional": 23974,
  "<0xB3>": 182,
  "▁CAS": 16951,
  "▁Computer": 4980,
  "▁offset": 8979,
  "▁Dav": 20963,
  "proclaimed": 22161,
  "cooked": 22729,
  "MEM": 28771,
  "connect": 18981,
  "▁Issues": 18028,
  "▁squander": 27936,
  "▁Moving": 10046,
  "▁BEST": 14492,
  "▁Stuttgart": 31019,
  "▁analytical": 12042,
  "▁supervision": 10026,
  "verse": 7208,
  "▁beige": 23692,
  "▁commitment": 2844,
  "▁Laptop": 17722,
  "▁redefine": 24675,
  "▁children": 600,
  "▁surface": 1544,
  "squeezing": 31031,
  "▁spiritually": 22131,
  "▁stitches": 19418,
  "▁Snapdragon": 28790,
  "▁refinancing": 30321,
  "▁tenants": 11108,
  "▁PPC": 20880,
  "▁Stress": 17218,
  "▁Hartford": 23689,
  "▁Members": 6195,
  "▁convincing": 14090,
  "▁Collier": 29135,
  "greased": 31383,
  "▁Appendix": 28171,
  "▁chapters": 9996,
  "specific": 6851,
  "surfacing": 21629,
  "▁signed": 2806,
  "▁parachute": 30632,
  "▁Fifth": 17631,
  "▁retaliat": 31769,
  "▁doubt": 2719,
  "▁sporadic": 31647,
  "▁Crisis": 21800,
  "▁cereal": 14961,
  "Black": 13720,
  "▁Teenage": 28621,
  "asse": 11459,
  "▁obey": 17070,
  "▁maps": 5431,
  "▁encrypted": 16612,
  "chen": 6600,
  "▁equine": 30177,
  "▁Avatar": 30786,
  "▁breaks": 6489,
  "▁Masters": 10206,
  "▁Addison": 30592,
  "rigg": 19115,
  "▁Curry": 21514,
  "Market": 21256,
  "▁PowerPoint": 16797,
  "87": 5715,
  "▁occurring": 10283,
  "▁demonstrated": 6227,
  "▁section": 1308,
  "▁Guess": 20768,
  "▁Iowa": 7578,
  "▁Woodstock": 30639,
  "▁Or": 1299,
  "modern": 17660,
  "▁crying": 13427,
  "▁Steven": 10066,
  "?\"": 3716,
  "▁Peace": 7670,
  "▁Appalachian": 27484,
  "▁civic": 14493,
  "▁3-5": 19295,
  "crack": 27475,
  "▁gamble": 16702,
  "▁synonymous": 22685,
  "▁differently": 6827,
  "Gold": 22817,
  "▁Stanford": 13390,
  "show": 8666,
  "<0xA9>": 172,
  "▁Rockefeller": 30840,
  "▁wolf": 19139,
  "▁Dame": 16705,
  "▁A": 323,
  "▁Albany": 19308,
  "▁heat": 1456,
  "▁finished": 1873,
  "▁Met": 8576,
  "▁Song": 8686,
  "LAS": 18397,
  "▁Purchase": 8962,
  "▁tedious": 20346,
  "▁GOP": 16429,
  "sons": 20574,
  "▁reg": 17725,
  "cultivating": 27025,
  "▁Led": 13755,
  "▁escaped": 18328,
  "▁adhere": 9898,
  "gies": 20464,
  "▁during": 520,
  "lac": 7433,
  "▁catering": 10270,
  "▁components": 2432,
  "factory": 25389,
  "cyto": 14133,
  "▁Yamaha": 20420,
  "▁Ontario": 6365,
  "▁fluffy": 17493,
  "▁traders": 10110,
  "<0x5D>": 96,
  "▁Twilight": 26571,
  "▁bird": 4353,
  "▁redundant": 21906,
  "▁Memorial": 6426,
  "▁basketball": 6101,
  "▁luxurious": 6960,
  "▁canoe": 18276,
  "▁trades": 11622,
  "▁Trustees": 22301,
  "▁Gloss": 23830,
  "▁leader": 2170,
  "▁others": 764,
  "▁entered": 3617,
  "▁11,": 8254,
  "▁tiring": 29098,
  "▁randomized": 21590,
  "▁Chiang": 28648,
  "▁Cover": 4399,
  "▁standard": 1125,
  "▁Abuse": 23874,
  "▁Armor": 23235,
  "marinated": 29372,
  "▁Boulevard": 18119,
  "▁sim": 14686,
  "▁visited": 3791,
  "▁Copenhagen": 19273,
  "▁leadership": 2374,
  "▁dirty": 8524,
  "▁parchment": 21513,
  "▁Mos": 14487,
  "<0xA7>": 170,
  "▁Acrobat": 29106,
  "▁PJ": 24777,
  "▁trader": 16674,
  "▁Kazakhstan": 23208,
  "▁Synthetic": 28428,
  "▁Caldwell": 30108,
  "▁necessitate": 25787,
  "▁differentiate": 12109,
  "▁systemic": 16921,
  "▁Maui": 24278,
  "▁Who": 2172,
  "▁erupt": 29515,
  "▁Mansfield": 28740,
  "▁flexibility": 4510,
  "▁Luxembourg": 22775,
  "▁holder": 7246,
  "▁Cat": 4032,
  "▁excavation": 22206,
  "▁organized": 3556,
  "▁documents": 2286,
  "▁seniors": 10232,
  "investment": 29425,
  "▁vi": 6988,
  "guin": 24194,
  "▁anti": 1812,
  "OSS": 20015,
  "thri": 26173,
  "▁written": 1316,
  "▁fade": 12563,
  "▁Boxes": 26602,
  "▁efficiently": 5742,
  "▁Collaboration": 24966,
  "curricular": 20969,
  "▁Olympia": 20127,
  "▁articulation": 29852,
  "maximizing": 23995,
  "▁Botanical": 25128,
  "▁handles": 8526,
  "▁lovers": 8406,
  "LING": 23325,
  "▁spun": 23461,
  "▁winery": 20808,
  "▁proprietor": 21220,
  "▁Leave": 7644,
  "clusion": 17738,
  "▁classical": 7566,
  "▁enjoyable": 6279,
  "▁commemorate": 19172,
  "▁Dessert": 30348,
  "Importantly": 31265,
  "▁Hal": 10113,
  "▁rebound": 16097,
  "▁McGill": 29937,
  "est": 1369,
  "▁blueprint": 19729,
  "▁torrent": 17252,
  "▁Berk": 24522,
  "▁joined": 2585,
  "lph": 17806,
  "▁clean": 1212,
  "▁Rain": 10288,
  "fed": 17033,
  "▁flap": 15180,
  "RU": 11968,
  "▁impulse": 17663,
  "ggling": 27259,
  "inflammatory": 16258,
  "▁Healthy": 12510,
  "product": 12154,
  "▁foolish": 20702,
  "▁Gustav": 29736,
  "▁reuse": 14080,
  "ARI": 25670,
  "rik": 11504,
  "▁adaptation": 10260,
  "▁Ramsey": 27694,
  "▁Jared": 23313,
  "▁them": 355,
  "▁ranked": 6658,
  "ole": 4638,
  "shot": 8487,
  "▁skillful": 25059,
  "▁CR": 7404,
  "▁Hash": 24092,
  "Nasdaq": 27561,
  "derived": 25354,
  "▁drums": 14293,
  "▁unresolved": 30778,
  "▁repertoire": 19419,
  "ians": 8662,
  "▁distance": 2248,
  "▁Regardless": 9139,
  "▁Che": 4760,
  "▁Sin": 8608,
  "<0xCD>": 208,
  "▁screened": 17520,
  "▁OECD": 26621,
  "plane": 13667,
  "▁suppliers": 4440,
  "▁suitable": 2386,
  "▁shop": 1538,
  "▁structural": 6179,
  "9.0": 27136,
  "invasive": 24053,
  "▁hip": 4806,
  "▁senator": 16502,
  "compete": 31873,
  "69": 4542,
  "▁cushioning": 25928,
  "▁headlamp": 31569,
  "▁alerts": 12805,
  "▁Guest": 11229,
  "▁rights": 1603,
  "▁Founder": 14505,
  "▁skeletal": 27347,
  "▁Lafayette": 25125,
  "▁motivator": 31904,
  "▁Telephone": 24571,
  "▁Leah": 25306,
  "▁sprung": 30315,
  "▁fading": 21802,
  "▁realization": 16147,
  "gree": 13502,
  "iki": 9912,
  "▁detective": 15842,
  "▁Kids": 5390,
  "EX": 7947,
  "▁film": 1142,
  "▁wins": 6153,
  "▁prosecuted": 29617,
  "▁baths": 15134,
  "▁occurs": 4755,
  "▁institution": 5176,
  "▁suggest": 2442,
  "moto": 14144,
  "taine": 16210,
  "▁subjects": 4906,
  "journal": 23267,
  "9%)": 29048,
  "by": 1498,
  "▁LIVE": 19314,
  "▁classes": 2061,
  "BO": 8359,
  "°": 3610,
  "▁nightmare": 12920,
  "ensi": 12774,
  "▁sandy": 15498,
  "▁foil": 10852,
  "▁accommodation": 4568,
  "▁(2016)": 18636,
  "▁Traffic": 12973,
  "▁extinguish": 22167,
  "inch": 4310,
  "▁Cl": 8454,
  "NDA": 22656,
  "▁Nutrition": 11546,
  "Neighbor": 27956,
  "stage": 9084,
  "aceae": 29138,
  "▁piercing": 26432,
  "discusses": 10953,
  "▁Hannah": 15299,
  "▁including": 516,
  "▁Guinea": 19817,
  "downright": 28095,
  "trix": 20289,
  "▁4:30": 22223,
  "▁2006.": 10837,
  "MES": 23544,
  "▁Incorporated": 28962,
  "lasting": 13817,
  "206": 20842,
  "▁Talbot": 31428,
  "zier": 20691,
  "▁Din": 11460,
  "▁monetary": 9543,
  "▁bedroom": 2317,
  "▁Different": 10142,
  "<0x9A>": 157,
  "▁postponed": 26433,
  "▁worksheets": 16892,
  "▁Raleigh": 20561,
  "▁thumbnail": 22071,
  "▁profit": 3701,
  "▁Sep": 8868,
  "▁Weather": 10848,
  "▁sixth": 8754,
  "▁infertility": 29632,
  "▁skills": 1040,
  "▁duration": 5873,
  "▁Format": 11324,
  "▁THC": 23278,
  "▁sailboat": 31986,
  "double": 22445,
  "▁Stewart": 11177,
  "▁frantic": 31083,
  "▁variant": 13389,
  "▁swallow": 16557,
  "▁diffuser": 27015,
  "▁punches": 27982,
  "OLE": 26566,
  "▁Bri": 7358,
  "▁Quinn": 20279,
  "Div": 17939,
  "▁1-2": 12061,
  "▁dabbl": 30700,
  "lori": 21188,
  "▁Belgium": 10980,
  "OCK": 21445,
  "▁acknowledged": 11485,
  "▁$45": 24188,
  "▁allied": 23530,
  "▁THIS": 7782,
  "▁Trout": 28375,
  "▁commenc": 28607,
  "▁Trauma": 28688,
  "▁cal": 11374,
  "▁brochure": 11139,
  "▁left": 698,
  "▁cialis": 13431,
  "▁Sydney": 5415,
  "SN": 8311,
  "▁Eurasia": 30902,
  "Up": 9306,
  "▁glitter": 14565,
  "spirit": 21924,
  "vel": 6184,
  "▁Petro": 18841,
  "Crypt": 31178,
  "▁AG": 9697,
  "swallowed": 30883,
  "▁cheddar": 25870,
  "▁two": 395,
  "▁discussed": 3588,
  "▁dilution": 29667,
  "▁turns": 3544,
  "▁bullet": 9425,
  "▁fudge": 30011,
  "▁shaker": 24232,
  "▁Dirt": 29442,
  "▁MN": 12985,
  "▁illnesses": 14075,
  "▁conversions": 17990,
  "climbed": 19086,
  "▁hated": 18550,
  "▁previous": 1507,
  "▁Not": 1012,
  "▁chill": 10645,
  "duction": 11921,
  "▁Actress": 28075,
  "▁Circular": 28738,
  "▁accent": 9675,
  "MHz": 16784,
  "▁2009.": 7666,
  "▁endure": 14235,
  "road": 8189,
  "▁Jamie": 12851,
  "▁Cheese": 13658,
  "▁founding": 10459,
  "▁reversible": 26605,
  "▁broadband": 13023,
  "▁approach": 1168,
  "▁Zack": 26570,
  "▁Viking": 14148,
  "▁Catalog": 21935,
  "▁Additional": 7148,
  "Show": 22915,
  "▁Sherman": 23089,
  "520": 20603,
  "▁tests": 3086,
  "▁brewer": 27138,
  "▁Chain": 12031,
  "▁Hunt": 11885,
  "▁audit": 6413,
  "▁genuine": 5355,
  "▁Lagos": 22773,
  "▁Crew": 11474,
  "▁Companies": 7387,
  "▁disorder": 6487,
  "▁CS": 7547,
  "▁passion": 2762,
  "▁states": 1875,
  "▁Proof": 18959,
  "▁undocumented": 28847,
  "▁applause": 28583,
  "OE": 14189,
  "▁troubled": 17454,
  "permeate": 29177,
  "▁Secondary": 16830,
  "▁sincerity": 30628,
  "▁Brooke": 24245,
  "mari": 13510,
  "▁vow": 18892,
  "▁Zip": 14831,
  "▁1938": 22757,
  "ending": 7526,
  "▁Lum": 14392,
  "▁Spending": 24580,
  "▁GL": 13341,
  "411": 25017,
  "▁Modified": 30255,
  "▁calves": 28759,
  "buster": 22439,
  "▁colored": 7531,
  "▁cosmetic": 9730,
  "▁Deco": 20743,
  "▁especially": 906,
  "Cortez": 31900,
  "▁Input": 22369,
  "▁publicly": 7631,
  "▁Ask": 5224,
  "▁exploring": 4839,
  "▁contaminants": 22894,
  "▁21,": 9086,
  "▁dresser": 21747,
  "▁thoughtful": 10024,
  "▁Twice": 31414,
  "▁trilogy": 23122,
  "Chinese": 30677,
  "▁Estimate": 24617,
  "thirds": 20213,
  "▁cattle": 11854,
  "lumbar": 27050,
  "▁Berlin": 6981,
  "▁Marsh": 15800,
  "ACH": 21145,
  "▁Alpha": 11848,
  "pathy": 16770,
  "▁Dillon": 29222,
  "beaded": 31566,
  "▁Bru": 11647,
  "▁occasionally": 6756,
  "▁Hose": 27297,
  "▁arrived": 3125,
  "▁United": 894,
  "▁fulfil": 16158,
  "▁Wonderful": 13949,
  "▁1-800-": 20477,
  "▁reservations": 11811,
  "▁astronaut": 22869,
  "▁optimise": 26299,
  "Founded": 13892,
  "▁frames": 6760,
  "▁cement": 8523,
  "▁damages": 6043,
  "▁1978": 12436,
  "▁Marcel": 23044,
  "clean": 14007,
  "▁Pep": 20442,
  "enc": 9185,
  "▁Chapman": 23288,
  "▁yet": 814,
  "▁tips": 1869,
  "▁Mug": 19063,
  "▁vacancy": 23595,
  "▁Introduction": 12583,
  "▁pathway": 11904,
  "▁Miles": 15855,
  "▁disagreement": 20402,
  "▁League": 3158,
  "▁Georgetown": 22873,
  "lig": 7121,
  "Hyp": 30947,
  "133": 21251,
  "aste": 11601,
  ":20": 14410,
  "▁instinct": 14343,
  "2.2": 20262,
  "▁managing": 3630,
  "▁amazon": 15914,
  "thro": 8027,
  "▁Wal": 7497,
  "▁Word": 4119,
  "▁swear": 16141,
  "▁pollen": 22548,
  "▁variable": 5804,
  "▁trivial": 22901,
  "▁insect": 16438,
  "▁Printer": 16924,
  "▁fru": 22618,
  "Drive": 17196,
  "▁progressive": 7747,
  "RAL": 22534,
  "▁stalk": 16153,
  "▁tracked": 15627,
  "▁income": 1699,
  "▁£10": 19981,
  "▁Mobi": 22737,
  "▁literally": 4693,
  "▁Fletcher": 26136,
  "▁clip": 6255,
  "▁IM": 12533,
  "▁Table": 3154,
  "▁Chi": 4060,
  "<0xF6>": 249,
  "Based": 19691,
  "▁hungry": 8984,
  "▁Heater": 23203,
  "▁Editorial": 27154,
  "calc": 14968,
  "adjoining": 24214,
  "▁Weird": 29723,
  "▁Schu": 15110,
  "▁rode": 16129,
  "▁summon": 21082,
  "allegedly": 12660,
  "witnessing": 28454,
  "▁sprain": 29705,
  "futon": 31085,
  "▁alongside": 4153,
  "▁interpreter": 21281,
  "▁pinterest": 17723,
  "ionist": 16215,
  "▁tight": 4071,
  "266": 27928,
  "▁augmented": 22979,
  "Boost": 29837,
  "▁specifically": 2564,
  "▁retrieval": 24027,
  "▁awkward": 12772,
  "▁Eric": 6181,
  "▁Diploma": 14134,
  "▁Hawai": 31366,
  "▁quarter": 2567,
  "▁sci": 10316,
  "▁subordinate": 26632,
  "▁Nobody": 15184,
  "early": 22721,
  "▁grassroots": 22243,
  "▁Spectacular": 31417,
  "▁depletion": 29715,
  "▁disbelief": 30655,
  "▁praised": 17367,
  "▁Volunteer": 15137,
  "▁3)": 8559,
  "▁Gavin": 26261,
  "▁Zach": 20549,
  "▁Box": 4549,
  "▁indicator": 8702,
  "▁extent": 4010,
  "▁realised": 12284,
  "131": 20062,
  "▁stained": 14064,
  "▁Wie": 20883,
  "FORD": 28549,
  "▁Morton": 26829,
  "<extra_id_13>": 32086,
  "▁exact": 3207,
  "▁granular": 27552,
  "▁contractors": 5541,
  "▁Current": 8448,
  "▁Bourbon": 29406,
  "cor": 6405,
  "▁Omega": 17796,
  "relieving": 26596,
  "▁hotspot": 20116,
  "▁Sort": 22219,
  "▁experimentation": 21780,
  "▁pretend": 14070,
  "ALA": 26016,
  "▁keep": 564,
  "2%)": 27282,
  "▁appropriation": 27100,
  "mouth": 9884,
  "▁swinging": 22361,
  "▁equations": 18513,
  "ished": 16461,
  "pipe": 20363,
  "▁affluent": 28045,
  "▁club": 1993,
  "▁grand": 4106,
  "▁reviewed": 6127,
  "▁patches": 12089,
  "▁scooter": 17069,
  "▁chrome": 11392,
  "ucker": 24800,
  "racking": 22912,
  "▁gratification": 31444,
  "▁Published": 8935,
  "tru": 6161,
  "▁Nine": 12561,
  "▁graveyard": 31352,
  "▁medication": 5270,
  "▁though": 767,
  "▁1700": 25603,
  "▁Individual": 12341,
  "▁cloudy": 19036,
  "▁graduation": 8888,
  "▁Sand": 4954,
  "▁Mol": 13057,
  "item": 22834,
  "▁wholesale": 8846,
  "▁laws": 2759,
  "__": 19652,
  "▁body": 690,
  "▁Fighting": 25655,
  "▁Toni": 27971,
  "▁bilingual": 24707,
  "wild": 19768,
  "<0x32>": 53,
  "▁comfortably": 11133,
  "comfort": 26830,
  "▁RSS": 9771,
  "▁descending": 26156,
  "▁ultrasound": 16133,
  "▁or": 286,
  "visibly": 27254,
  "▁Jacket": 18087,
  "I": 397,
  "constituted": 27717,
  "▁fur": 7641,
  "also": 10328,
  "▁Identify": 19029,
  "▁talents": 9307,
  "bri": 5125,
  "▁Expedia": 31761,
  "kho": 24019,
  "▁citrus": 14602,
  "may": 11083,
  "▁starvation": 30727,
  "▁minister": 5810,
  "ALLY": 22368,
  "188": 24070,
  "-90": 18143,
  "▁saddle": 15685,
  "▁tongue": 8792,
  "▁procedure": 2878,
  "General": 16095,
  "umab": 26004,
  "stuff": 19124,
  "▁insulin": 11328,
  "fluoro": 27458,
  "▁painted": 5059,
  "▁misinterpret": 31318,
  "▁$30,000": 30141,
  "▁Area": 3943,
  "TRU": 25468,
  "▁probation": 21587,
  "xton": 16364,
  "qua": 5273,
  "▁Magento": 23640,
  "▁nutrients": 7636,
  "199": 16518,
  "▁Stud": 23966,
  "Che": 14239,
  "▁balancing": 13681,
  "▁allergen": 22276,
  "engineering": 28129,
  "display": 31637,
  "▁patience": 8619,
  "▁cholesterol": 10860,
  "religious": 29493,
  "▁Rau": 26347,
  "▁Hyundai": 17509,
  "▁tearing": 24059,
  "▁lifetime": 4521,
  "▁excursions": 21250,
  "▁scr": 12387,
  "▁conception": 17916,
  "▁spots": 4818,
  "▁proprietary": 9715,
  "▁consistent": 3499,
  "▁Manual": 6971,
  "▁fancy": 7359,
  "▁#3": 14031,
  "▁noted": 3619,
  "▁complication": 27274,
  "▁Nas": 15941,
  "▁2003": 5639,
  "esteemed": 26422,
  "▁governmental": 17125,
  "▁occupational": 16692,
  "▁Beer": 12988,
  "▁62": 8701,
  "social": 15386,
  "past": 21161,
  "▁compliment": 11914,
  "▁meditate": 25124,
  "▁attendee": 30731,
  "▁baskets": 15915,
  "▁sync": 9419,
  "The": 775,
  "KA": 12663,
  "▁cheerleader": 31888,
  "sufficiency": 26863,
  "roth": 25403,
  "▁Scorpio": 27169,
  "▁Portland": 7940,
  "ente": 10958,
  "filled": 10587,
  "<extra_id_3>": 32096,
  "▁scar": 9372,
  "▁1998": 5263,
  "▁(16": 17652,
  "▁Celtic": 14571,
  "▁Bengal": 15114,
  "▁lips": 10768,
  "nema": 27411,
  "mik": 28776,
  ":30": 10333,
  "▁torso": 28580,
  "▁noise": 3578,
  "▁wealth": 4170,
  "▁Mystic": 28345,
  "▁balls": 7724,
  "▁chocolate": 2789,
  "▁formal": 3813,
  "▁chalk": 15702,
  "▁objective": 4210,
  "last": 9567,
  "▁Scan": 11557,
  "▁rig": 9486,
  "▁Vivi": 19946,
  "▁fats": 14658,
  "RENT": 25607,
  "▁cylinder": 9197,
  "▁judgement": 15106,
  "▁context": 2666,
  "▁affiliate": 7846,
  "▁Dept": 21230,
  "▁Serum": 29409,
  "advocating": 22842,
  "▁Soon": 10273,
  "▁usefulness": 25409,
  "▁Pontiac": 31698,
  "his": 8799,
  "▁sexuality": 27250,
  "▁Pennsylvania": 5862,
  "▁Auditor": 26653,
  "/4": 10415,
  "▁diversification": 27519,
  "wer": 7961,
  "▁quickly": 1143,
  "▁Hur": 11882,
  "▁#2": 9760,
  "▁Purpose": 18695,
  "anese": 24719,
  "•": 20776,
  "▁existential": 28866,
  "▁causing": 4209,
  "▁educators": 10710,
  "▁crew": 3603,
  "415": 27810,
  "▁deletion": 21999,
  "▁butterflies": 20170,
  "ark": 8060,
  "▁instruction": 5527,
  "▁disappeared": 13253,
  "▁affected": 3113,
  "▁drop": 1909,
  "▁SOME": 25516,
  "▁warranty": 4414,
  "▁Cup": 3538,
  "▁Looking": 3373,
  "1-2": 17485,
  "sculptural": 30724,
  "▁cartridge": 14956,
  "werk": 27385,
  "▁elegance": 12418,
  "▁General": 2057,
  "nailed": 30350,
  "Fast": 30198,
  "▁trough": 25819,
  "▁Eye": 6320,
  "bod": 15608,
  "▁novel": 2998,
  "▁prolonged": 15320,
  "▁possibly": 2775,
  "▁Comfort": 16846,
  "▁Manor": 18553,
  "WG": 20755,
  "▁microprocessor": 31576,
  "▁Bar": 1856,
  "________________": 30136,
  "▁Andrea": 12718,
  "▁Vehicle": 9455,
  "▁collapsed": 19107,
  "▁Today": 1711,
  "▁Mosaic": 28297,
  "▁Tags": 15439,
  "TUR": 23789,
  "▁14,": 9120,
  "▁Sparrow": 31261,
  "▁las": 15910,
  "growing": 15537,
  "▁negotiated": 19242,
  "▁Trainer": 18066,
  "▁landlords": 20698,
  "▁planners": 18401,
  "1.5": 14924,
  "▁Bennett": 17143,
  "bedroom": 17154,
  "RG": 11826,
  "▁Abram": 23896,
  "5.4": 21360,
  "ght": 28309,
  "▁passenger": 7334,
  "▁Boise": 26549,
  "▁Lightning": 20520,
  "don": 3136,
  "▁dresses": 8866,
  "electronic": 25226,
  "▁eternity": 21795,
  "gating": 19208,
  "▁Angular": 30986,
  "▁cr": 7142,
  "conom": 23589,
  "bama": 28896,
  "talk": 13947,
  "▁fraudulent": 17427,
  "▁layered": 16883,
  "▁Edwards": 15468,
  "▁pellet": 17388,
  "mp": 2557,
  "▁Lease": 23370,
  "▁domains": 11597,
  "truck": 24903,
  "▁exemplif": 28006,
  "▁MacBook": 20509,
  "▁lo": 5794,
  "▁Tribute": 29275,
  "▁suite": 5239,
  "facing": 15517,
  "▁Ron": 7661,
  "▁riches": 25405,
  "▁titled": 8210,
  "uci": 16538,
  "troph": 16570,
  "▁dig": 7227,
  "▁Reunion": 29962,
  "▁ultrasonic": 28643,
  "▁Vol": 5082,
  "▁Conversion": 24205,
  "▁gloom": 24661,
  "▁Iraq": 6985,
  "2.3": 14473,
  "▁finalized": 24410,
  "▁chute": 30464,
  "opulent": 31767,
  "▁Limited": 4916,
  "position": 9077,
  "▁feminist": 23438,
  "▁Stow": 31455,
  "▁saved": 4033,
  "▁globally": 8854,
  "▁PMID": 22318,
  "▁calculating": 19429,
  "expressing": 15772,
  "▁faith": 2511,
  "▁Legislature": 20037,
  "▁Activity": 16202,
  "▁earthquake": 10601,
  "magic": 26928,
  "▁ramen": 31869,
  "FX": 17987,
  "▁Tradition": 24849,
  "▁Gloria": 26318,
  "▁chant": 16936,
  "8.5": 14353,
  "▁reasoning": 13882,
  "▁Peach": 22182,
  "▁Der": 11586,
  "▁inherit": 22791,
  "▁Plans": 9092,
  "▁wrapping": 15616,
  "stic": 11109,
  "▁applied": 2258,
  "▁witnesses": 13470,
  "▁Odyssey": 25353,
  "burg": 6415,
  "▁Patients": 12006,
  "▁compelling": 8347,
  "▁forces": 3314,
  "▁brighten": 15756,
  "▁Hear": 17669,
  "lapping": 29237,
  "▁occult": 31682,
  "▁garnish": 20329,
  "▁Monarch": 27930,
  "▁sinus": 19301,
  "▁funky": 21732,
  "▁preservative": 22265,
  "▁tactile": 27874,
  "▁understandable": 17678,
  "▁Ralph": 15466,
  "grand": 18399,
  "▁Cel": 14776,
  "▁influencers": 22089,
  "▁illicit": 27579,
  "-23": 14871,
  "▁Compensation": 21288,
  "▁Bates": 26747,
  "Wave": 28290,
  "▁Privacy": 11417,
  "▁Exercise": 14732,
  "▁Words": 15433,
  "▁homogen": 22240,
  "▁EL": 13000,
  "▁wavelength": 20211,
  "▁Along": 6318,
  "▁affects": 7141,
  "▁Charm": 18148,
  "▁wrapped": 7821,
  "!!!!!": 18559,
  "▁Acid": 13935,
  "▁BY": 9393,
  "▁pint": 20167,
  "▁Honda": 8390,
  "▁Notes": 11232,
  "▁2001,": 15740,
  "pox": 29071,
  "▁reinforce": 13513,
  "▁Abbott": 23741,
  "reading": 21121,
  "▁partnership": 3452,
  "▁insure": 16626,
  "▁viscosity": 29408,
  "Bank": 20837,
  "▁palace": 13606,
  "▁authoritative": 23175,
  "har": 4320,
  "▁Yankees": 20683,
  "▁Ahmedabad": 28662,
  "finish": 25797,
  "▁repayment": 15274,
  "config": 12775,
  "▁grate": 24937,
  "▁Jung": 24611,
  "▁button": 1762,
  "▁hamburger": 27373,
  "preparatory": 31312,
  "▁specific": 893,
  "▁max": 7795,
  "yak": 19184,
  "▁iris": 28026,
  "▁turnaround": 18708,
  "▁take": 424,
  "▁aggressively": 21396,
  "▁heart": 918,
  "▁breakout": 18964,
  "6.7": 24170,
  "▁waffle": 21557,
  "▁blocking": 11564,
  "DF": 9649,
  "vas": 9612,
  "▁politics": 4524,
  "dale": 5418,
  "▁urine": 14864,
  "owski": 18145,
  "▁Tate": 24357,
  "▁Expect": 12526,
  "▁stems": 13523,
  "▁scrubbing": 31692,
  "blaming": 27931,
  "NK": 11724,
  "▁rises": 15476,
  "▁Except": 14107,
  "TEX": 24769,
  "02": 6090,
  "ubb": 15482,
  "▁magic": 4063,
  "▁unleash": 18259,
  "▁dermatologist": 28980,
  "give": 14118,
  "▁productive": 6172,
  "▁lunches": 21436,
  "▁fibre": 10975,
  "ectomy": 18406,
  "Du": 14986,
  "▁mistakes": 5483,
  "▁turning": 3607,
  "▁Coffee": 7264,
  "▁cupcakes": 19605,
  "▁drip": 17133,
  "▁Chair": 5735,
  "▁teenagers": 13971,
  "▁distinctive": 7428,
  "▁Cab": 10435,
  "thing": 9810,
  "▁Harley": 19417,
  "▁HUD": 26092,
  "▁Yoshi": 26678,
  "eminent": 19479,
  "▁difficulty": 5796,
  "▁applicant": 9158,
  "▁cerebral": 23496,
  "▁ES": 8733,
  "▁savings": 3478,
  "1.0": 19592,
  "▁speech": 3700,
  "▁promised": 7451,
  "plant": 15925,
  "▁portrayal": 25736,
  "▁Phen": 21751,
  "UEFA": 29647,
  "▁mathematician": 28812,
  "▁dilute": 29674,
  "▁knowing": 3164,
  "▁Cancun": 31953,
  "▁True": 7261,
  "▁volatile": 18291,
  "rati": 15769,
  "▁Cement": 23161,
  "020": 20337,
  "▁Mis": 9102,
  "control": 12918,
  "▁Minecraft": 21721,
  "keep": 26731,
  "▁Sid": 13463,
  "coated": 23735,
  "▁$0": 11998,
  "▁romp": 31130,
  "250": 10380,
  "191": 27088,
  "▁Stern": 24276,
  "thoracic": 30753,
  "▁0.3": 18463,
  "Girl": 21606,
  "▁chase": 11755,
  "▁fabricated": 23666,
  "▁gothic": 31721,
  "cla": 14503,
  "▁Rs": 6870,
  "▁Learning": 4743,
  "▁wreath": 19999,
  "▁blues": 14165,
  "▁excret": 31422,
  "▁imprint": 19054,
  "▁timeframe": 21300,
  "▁betting": 7073,
  "▁Hill": 2852,
  "4.1": 15969,
  "▁nanny": 29483,
  "▁applicants": 7999,
  "▁receive": 948,
  "ech": 9236,
  "▁overtime": 15648,
  "▁imagination": 6814,
  "mycin": 21963,
  "▁requirements": 1336,
  "lagging": 31342,
  "BY": 18418,
  "▁frequent": 5666,
  "month": 5634,
  "▁Hawaiian": 17985,
  "▁technologist": 30561,
  "▁Keyboard": 23663,
  "▁350": 8357,
  "▁Fai": 28152,
  "▁acts": 4641,
  "used": 10188,
  "▁Laser": 12661,
  "▁happiness": 6050,
  "▁firearm": 22168,
  "▁parse": 23623,
  "-100": 17872,
  "▁Carolina": 3851,
  "▁Now": 867,
  "lining": 17934,
  "▁Horse": 8744,
  "▁fire": 1422,
  "▁envy": 22810,
  "▁volunteer": 4731,
  "▁Evangelical": 30890,
  "▁Sar": 8566,
  "set": 2871,
  "pool": 10303,
  "▁Sul": 17832,
  "▁warfare": 20010,
  "Christmas": 30030,
  "▁lovely": 2427,
  "ound": 6871,
  "▁textures": 12971,
  "▁cultivated": 21314,
  "▁secretly": 22545,
  "▁Knowing": 12864,
  "▁Relax": 18233,
  "rav": 9068,
  "▁recycled": 10302,
  "▁Cisco": 11151,
  "▁Airways": 20720,
  "TE": 6497,
  "▁crappy": 30542,
  "haven": 19239,
  "в": 10189,
  "C": 498,
  "▁manufacturers": 3729,
  "▁someday": 18478,
  "REP": 23948,
  "▁HO": 12446,
  "▁Contractor": 18480,
  "▁stalls": 19222,
  "▁favour": 9252,
  "accented": 30833,
  "separating": 19256,
  "▁perceptions": 18014,
  "▁XII": 30931,
  "▁boiler": 9297,
  "▁Sharp": 14428,
  "▁pathogen": 17212,
  "▁pipeline": 8013,
  "▁McCain": 22813,
  "▁methane": 26531,
  "▁Bridge": 4352,
  "p": 388,
  "▁rest": 1115,
  "▁Muscle": 24200,
  "▁Pack": 5764,
  "▁imaginable": 27997,
  "▁Retail": 10099,
  "▁lined": 8956,
  "▁nor": 2973,
  "▁Bloomberg": 19017,
  "▁Brennan": 28574,
  "table": 5887,
  "▁hearty": 20897,
  "▁Immediate": 30627,
  "▁Computing": 18351,
  "▁Courtney": 25129,
  "▁Fair": 4181,
  "▁Lumpur": 26168,
  "vail": 15597,
  "▁crowd": 3824,
  "▁DISC": 28755,
  "▁beforehand": 17022,
  "▁Korea": 5004,
  "▁Wolverine": 29858,
  "▁leaked": 22549,
  "▁sure": 535,
  "-14": 9014,
  "XL": 19602,
  "▁spare": 5524,
  "▁Oncology": 28097,
  "▁writ": 26749,
  "▁Honour": 24103,
  "▁approved": 2770,
  "note": 10093,
  "▁Essay": 10299,
  "▁annually": 7161,
  "▁prayed": 19864,
  "▁continuum": 28162,
  "▁Photo": 4035,
  "▁Blitz": 31492,
  "ch": 1189,
  "▁Audio": 7865,
  "▁IC": 14041,
  "▁strains": 15251,
  "▁buggy": 29365,
  "▁trimming": 20232,
  "▁unfortunately": 7768,
  "▁Truly": 22941,
  "gard": 13953,
  "▁village": 3087,
  "▁Costume": 19696,
  "▁range": 695,
  "/3": 14972,
  "TX": 20684,
  "▁plateau": 24156,
  "▁cheerful": 18199,
  "▁96": 10489,
  "▁integration": 4027,
  "▁Peer": 22117,
  "▁cloth": 6602,
  "▁hack": 8349,
  "▁updates": 2864,
  "▁shady": 26530,
  "▁sufferers": 26079,
  "able": 425,
  "mode": 17534,
  "▁Senior": 4525,
  "▁Harold": 20983,
  "guide": 14989,
  "▁ocean": 3896,
  "▁distributing": 20502,
  "isco": 15949,
  "▁Optional": 22249,
  "▁escalation": 30192,
  "New": 7579,
  "pub": 22022,
  "▁orthodontic": 24898,
  "▁years": 403,
  "▁knees": 13087,
  "compromising": 16984,
  "▁ones": 1791,
  "error": 27079,
  "fford": 16335,
  "▁flavors": 7332,
  "▁faculties": 29072,
  "▁incense": 28169,
  "▁Desert": 14644,
  "▁sorting": 16812,
  "▁optic": 14783,
  "▁Romania": 16168,
  "▁Kru": 18940,
  "retinal": 27911,
  "thank": 14491,
  "drop": 11477,
  "▁dominated": 11710,
  "▁Leap": 28325,
  "Group": 24287,
  "▁infancy": 29143,
  "weak": 30257,
  "▁certifications": 18337,
  "▁6": 654,
  "▁fencing": 15887,
  "ought": 14620,
  "▁writes": 8006,
  "▁allergic": 15257,
  "▁King": 2229,
  "▁oxide": 14798,
  "..........": 23723,
  "negate": 30179,
  "▁logic": 7146,
  "Aid": 26049,
  "▁glamour": 23988,
  "▁Noir": 23957,
  "▁rupee": 28004,
  "▁inferior": 19251,
  "▁displaced": 20311,
  "▁graph": 10056,
  "▁Rinse": 28094,
  "▁Goldberg": 29526,
  "▁Kai": 13161,
  "'": 285,
  "▁Coast": 4012,
  "▁interpreting": 23179,
  "▁cloning": 31839,
  "▁indices": 23823,
  "▁planned": 3216,
  "disclosing": 31008,
  "▁BS": 10399,
  "▁Pell": 26208,
  "outfitted": 30568,
  "<0xEB>": 238,
  "▁bottles": 7169,
  "saurus": 27496,
  "dding": 11919,
  "▁pins": 11995,
  "Qu": 10610,
  "▁Ernst": 29363,
  "▁programmes": 8339,
  "▁ammo": 23258,
  "kumar": 30062,
  "▁Sleeve": 24535,
  "ал": 25268,
  "▁rapid": 5141,
  "▁star": 2139,
  "▁doorstep": 19304,
  "there": 9688,
  "▁Destination": 23577,
  "▁healthcare": 3399,
  "▁Leon": 11786,
  "▁HERE": 8151,
  "▁capture": 3609,
  "▁Imp": 11825,
  "▁LED": 3850,
  "▁Jennings": 29062,
  "▁Derma": 26372,
  "rap": 13132,
  "bud": 11188,
  "topic": 20367,
  "▁Newcastle": 15016,
  "▁sack": 16144,
  "▁Frankfurt": 22376,
  "▁Sanford": 30822,
  "▁Reveal": 26754,
  "▁Pad": 8451,
  "▁04": 6573,
  "▁77": 10064,
  "pati": 14250,
  "▁travellers": 16136,
  "▁concerning": 4190,
  "▁Eureka": 30906,
  "▁artistry": 29043,
  "▁paprika": 31059,
  "ika": 5596,
  "▁policing": 27502,
  "▁inspections": 15237,
  "▁aggregate": 8848,
  "▁speedy": 20322,
  "Louis": 31633,
  "IAN": 17986,
  "▁Tennis": 17515,
  "Ann": 14631,
  "typing": 30207,
  "credit": 14775,
  "tube": 21178,
  "▁Investment": 7057,
  "encompasses": 18634,
  "Develop": 31090,
  "ress": 8714,
  "▁corner": 2372,
  "Box": 14705,
  "▁artillery": 27183,
  "▁narrator": 23588,
  "▁apprentice": 20513,
  "EY": 18560,
  "▁serial": 8138,
  "▁dev": 12056,
  "▁Collaborative": 25814,
  "far": 7583,
  "▁Bro": 7205,
  "▁stamps": 14960,
  "▁achievable": 21975,
  "▁accomplishments": 15214,
  "significant": 20088,
  "▁PH": 12009,
  "▁Nan": 12451,
  "▁toxins": 15411,
  "▁Harbour": 17191,
  "ensen": 22183,
  "▁unveiled": 14857,
  "▁barriers": 8750,
  "safe": 14525,
  "▁Beech": 28768,
  "▁fumes": 29769,
  "▁negotiation": 14980,
  "▁Gaza": 16545,
  "▁Ebola": 27327,
  "▁taxpayer": 17589,
  "▁fungi": 23408,
  "heli": 23448,
  "▁pi": 5872,
  "▁peers": 8669,
  "▁multicultural": 27357,
  "▁surgery": 2891,
  "▁Summit": 8713,
  "▁scene": 2535,
  "LL": 7679,
  "although": 12863,
  "▁Shi": 5248,
  "▁pack": 3046,
  "▁darkness": 9786,
  "▁snorkeling": 26587,
  "PRI": 16935,
  "▁tuning": 15700,
  "</s>": 1,
  "▁reconcile": 26827,
  "▁energetic": 11239,
  "iser": 13320,
  "▁discs": 18820,
  "▁quilting": 22818,
  "▁Warning": 18618,
  "▁demonstrates": 10734,
  "BD": 13264,
  "ivity": 7077,
  "▁fax": 12530,
  "▁teach": 2939,
  "rose": 11314,
  "▁steering": 8909,
  "▁Seafood": 28933,
  "▁Rocket": 15768,
  "▁elegant": 4020,
  "▁CJ": 22525,
  "44": 3976,
  "▁casual": 5657,
  "▁Par": 4688,
  "▁aerospace": 21698,
  "dek": 28253,
  "ober": 23189,
  "▁Ferr": 13088,
  "▁Beam": 24511,
  "▁Yar": 17742,
  "0": 1002,
  "▁Frozen": 24542,
  "▁precise": 6282,
  "10)": 14716,
  "▁Scrub": 30287,
  "partner": 28221,
  "▁quintessential": 27312,
  "▁graphics": 4340,
  "-45": 20129,
  "see": 2817,
  "Care": 14115,
  "▁newspapers": 10753,
  "▁Fleet": 16576,
  "▁elderly": 8443,
  "Brand": 30050,
  "▁Comments": 10590,
  "▁calculated": 7241,
  "▁alliance": 11642,
  "AIL": 15075,
  "▁pattern": 2316,
  "▁leads": 2686,
  "▁downloaded": 7130,
  "POWER": 22197,
  "▁synthetic": 8670,
  "▁Kin": 9064,
  "CAD": 24255,
  "▁lawful": 20967,
  "plug": 18410,
  "▁Totally": 23380,
  "outskirts": 25588,
  "tempered": 25356,
  "▁beginner": 12691,
  "▁machines": 3226,
  "▁NAV": 27735,
  "▁Avoid": 9709,
  "▁POS": 15863,
  "▁Hyatt": 26553,
  "▁Podcast": 17065,
  "▁Cube": 23534,
  "▁Make": 1585,
  "▁crank": 14520,
  "61": 6073,
  "opus": 26330,
  "▁remarked": 27662,
  "▁Flexible": 22926,
  "▁Bookmark": 7325,
  "▁braid": 22107,
  "trans": 8885,
  "▁submerged": 28355,
  "▁Securities": 13701,
  "▁chiropractor": 23409,
  "▁host": 1997,
  "▁Guatemala": 21664,
  "morphic": 26881,
  "▁neither": 5094,
  "▁Marketplace": 22461,
  "▁Burke": 21063,
  "▁commute": 15882,
  "▁dire": 19850,
  "▁peculiar": 21552,
  "▁acre": 14528,
  "▁FIFA": 19127,
  "▁1.": 1721,
  "▁smelt": 31327,
  "▁picture": 1357,
  "volume": 24069,
  "▁stunt": 20391,
  "▁Black": 1500,
  "▁Buying": 14751,
  "▁computation": 22693,
  "rat": 6665,
  "▁OWN": 24902,
  "▁facilitated": 19533,
  "▁Outdoor": 7896,
  "▁OFF": 14056,
  "▁Walsh": 22303,
  "San": 18098,
  "▁theaters": 18958,
  "▁Techno": 24066,
  "▁Space": 4091,
  "heart": 16310,
  "508": 29082,
  "▁clown": 24499,
  "BRA": 24586,
  "▁Nathan": 14822,
  "bron": 19057,
  "▁Estonia": 19142,
  "▁alumni": 6965,
  "▁futile": 31345,
  "▁politicians": 8849,
  "▁Tehran": 24687,
  "▁farmers": 5164,
  "▁digital": 1266,
  "▁inheritance": 20381,
  "▁headquarters": 9132,
  "▁analyst": 11283,
  "NCH": 25170,
  "▁soccer": 7463,
  "▁exhibitors": 23962,
  "boot": 17843,
  "▁malt": 18111,
  "▁period": 1000,
  "▁horizontal": 9588,
  "▁Lex": 17782,
  "▁classroom": 4227,
  "▁20%": 6363,
  "▁bubbling": 30991,
  "▁buzz": 9071,
  "▁before": 445,
  "hill": 7449,
  "▁loyal": 9249,
  "AVE": 15034,
  "▁losing": 3899,
  "▁wrath": 26752,
  "▁Raiders": 24036,
  "▁ال": 13601,
  "vier": 25230,
  "▁Jeff": 6088,
  "▁Drain": 15362,
  "heads": 16867,
  "▁So": 485,
  "/16": 12696,
  "▁Posted": 7260,
  "neutral": 30238,
  "▁paths": 8684,
  "▁valley": 7129,
  "-07": 16387,
  "dish": 14425,
  "▁Tam": 8725,
  "▁hacked": 24024,
  "▁incarceration": 30610,
  "▁Bol": 13848,
  "▁powder": 3613,
  "▁Gender": 22257,
  "See": 13730,
  "hoot": 26680,
  "▁turbulence": 30901,
  "▁lower": 1213,
  "▁caterpillar": 29211,
  "▁Come": 3335,
  "▁Aspen": 24045,
  "▁Youth": 6766,
  "▁ensue": 24948,
  "▁clues": 16356,
  "▁Savannah": 21616,
  "▁forest": 4194,
  "▁type": 778,
  "▁Contrast": 29576,
  "▁victim": 5964,
  "▁GPU": 16691,
  "▁bliss": 24480,
  "lection": 19430,
  "▁increases": 3734,
  "▁setting": 1583,
  "▁cleaning": 1911,
  "▁Goes": 27813,
  "pick": 19655,
  "],": 11323,
  "410": 19331,
  "▁eggs": 4256,
  "secure": 18638,
  "published": 16998,
  "▁afflict": 27535,
  "▁retrieved": 23739,
  "▁wasted": 13955,
  "▁hollow": 15861,
  "▁shattered": 26172,
  "▁Prague": 18955,
  "▁Improving": 27742,
  "▁height": 3333,
  "▁Basic": 8100,
  "▁mediation": 17580,
  "▁continued": 2305,
  "▁Gomez": 27998,
  "14)": 20181,
  "▁underway": 12939,
  "URA": 25104,
  "▁driveway": 10783,
  "▁Katrina": 24942,
  "▁Cro": 7390,
  "Smart": 22541,
  "treated": 20913,
  "▁poem": 8994,
  "▁exploit": 11086,
  "▁Indy": 26045,
  "▁press": 2168,
  "▁recipient": 8009,
  "▁french": 14413,
  "▁onboard": 16401,
  "▁Laguna": 26073,
  "bank": 6800,
  "▁fatigue": 9774,
  "▁bones": 8155,
  "characterised": 27762,
  "▁Stu": 16507,
  "laws": 15763,
  "▁Botswana": 29193,
  "▁Anna": 7354,
  "▁wash": 4452,
  "▁Oliver": 12815,
  "▁Deadline": 26379,
  "▁Stabil": 31467,
  "Installing": 29582,
  "▁Agent": 11342,
  "▁precisely": 7195,
  "vending": 27168,
  "▁desperately": 15660,
  "▁producer": 6126,
  "▁Updated": 15539,
  "▁Lecture": 16307,
  "▁treatment": 990,
  "▁watershed": 25083,
  "▁conglomerate": 30231,
  "OH": 17356,
  "▁Depression": 18804,
  "▁applies": 5386,
  "▁kor": 27329,
  "▁cafes": 17714,
  "turned": 19024,
  "▁needed": 899,
  ".....": 7953,
  "▁adrenaline": 24749,
  "▁Velvet": 27016,
  "▁bogus": 31882,
  "▁calories": 6975,
  "bob": 17124,
  "▁complaint": 6605,
  "▁Kardashian": 27882,
  "▁courageous": 23458,
  "deficient": 25290,
  "▁Navi": 19567,
  "▁Rally": 23172,
  "▁Furnace": 31645,
  "▁Leaf": 13452,
  "▁7.5": 19006,
  "fish": 5218,
  "ä": 5500,
  "▁silver": 3030,
  "mur": 12294,
  "itation": 12386,
  "my": 2772,
  "▁pallet": 16009,
  "J": 947,
  "▁Clemson": 28546,
  "▁quiz": 13808,
  "▁versatility": 15281,
  "American": 6832,
  "▁Marin": 15690,
  "▁relapse": 25795,
  "Rank": 30893,
  "▁leftover": 13182,
  "SOL": 18149,
  "▁idiot": 21172,
  "▁undertaking": 9889,
  "▁Overnight": 23314,
  "▁sudden": 8248,
  "▁inhabited": 26604,
  "▁spokesperson": 17443,
  "▁Kolkata": 22468,
  "▁Specialty": 25022,
  "neur": 25338,
  "56": 4015,
  "▁Netherlands": 7931,
  "▁hassle": 7672,
  "▁panic": 10504,
  "▁2002.": 14799,
  "▁line": 715,
  "▁Golf": 5867,
  "<0x6F>": 114,
  "org": 1859,
  "▁':": 5825,
  "▁($2": 27489,
  "▁backbone": 20750,
  "▁beef": 6216,
  "hound": 17791,
  "▁propagation": 28183,
  "▁webmaster": 26911,
  "▁sunlight": 10450,
  "▁cats": 6473,
  "▁imprisonment": 23847,
  "Surprisingly": 26384,
  "use": 2392,
  "▁ran": 3395,
  "3.6": 15850,
  "▁aide": 20622,
  "▁Son": 4648,
  "▁monsoon": 29250,
  "▁Excellence": 12922,
  "ALE": 21472,
  "▁Toshiba": 26348,
  "▁lunchtime": 27556,
  "▁extremist": 24612,
  "▁goodies": 17456,
  "▁herself": 4306,
  "▁feeding": 7186,
  "▁Loyola": 31703,
  "▁Tweet": 20313,
  "dict": 11332,
  "▁unload": 18044,
  "▁Dishwasher": 29542,
  "LAY": 27680,
  "▁Cabernet": 27878,
  "▁emphasize": 10105,
  "▁28,": 9611,
  "8-0": 25213,
  "<0x49>": 76,
  "▁laughed": 16506,
  "▁Gene": 8963,
  "▁xeno": 30075,
  "▁trusting": 20767,
  "▁Poe": 14150,
  "▁Naz": 27105,
  "bal": 5630,
  "▁savage": 29586,
  "▁robot": 9628,
  "▁Technologies": 8757,
  "▁pervasive": 27350,
  "▁leaking": 18786,
  "▁Force": 5050,
  "TEL": 23012,
  "▁Constitutional": 26400,
  "▁colors": 2021,
  "makers": 9324,
  "▁Durham": 17959,
  "che": 3178,
  "own": 11383,
  "▁TRI": 21840,
  "▁baggage": 19219,
  "▁flea": 18944,
  "▁precipitation": 19096,
  "▁steps": 1845,
  "▁drag": 7554,
  "▁plumbing": 7210,
  "▁prosperity": 14780,
  "▁mechanics": 11206,
  "Charitable": 30671,
  "▁alert": 5864,
  "Essentially": 21237,
  ":10.10": 26142,
  "▁unnatural": 28439,
  "▁gas": 1665,
  "▁negotiating": 15765,
  "▁refine": 14926,
  "▁statutory": 13813,
  "▁Tax": 5138,
  "ener": 13680,
  "▁Compress": 25733,
  "▁Laura": 9366,
  "▁Everett": 28467,
  "▁collaboration": 3180,
  "▁Pass": 4711,
  "▁sperm": 27380,
  "▁Anthropology": 30508,
  "▁HP": 4233,
  "▁Rewards": 19665,
  "▁comes": 701,
  "▁ceremonies": 18879,
  "▁portions": 10817,
  "dorf": 19984,
  "▁Cap": 4593,
  "▁knack": 28558,
  "secondary": 24771,
  "▁foster": 6959,
  "▁occurrence": 11856,
  "▁cyber": 7314,
  "▁boil": 9100,
  "▁museum": 4609,
  "logging": 25659,
  "▁hit": 1388,
  "▁grilled": 13400,
  "▁mother": 1753,
  "▁Clean": 5928,
  "▁matches": 4415,
  "▁slack": 21525,
  "▁rescue": 6494,
  "317": 28947,
  "llett": 24906,
  "▁4)": 12547,
  "▁SERVICES": 21758,
  "▁belly": 12376,
  "▁crucial": 3500,
  "▁luck": 3877,
  "▁latch": 20359,
  "▁autobiography": 31060,
  "▁Regina": 24146,
  "▁dividing": 22088,
  "supported": 22833,
  "▁champagne": 17472,
  "▁humor": 9729,
  "▁setup": 4054,
  "▁bend": 11180,
  "▁vegetarian": 11572,
  "▁Gala": 17892,
  "▁Hence": 8499,
  "production": 15888,
  "▁mosque": 19624,
  "▁carbohydrates": 18632,
  "▁amaze": 21118,
  "▁Happiness": 25883,
  "▁Daw": 25969,
  "▁pyramid": 19090,
  "cchio": 30128,
  "▁Scotch": 28809,
  "▁poisonous": 28170,
  "▁hugely": 16191,
  "▁DLC": 27727,
  "▁blessing": 10381,
  "▁INFORMATION": 22108,
  "task": 21123,
  "▁Prescription": 26855,
  "▁investigations": 11413,
  "sell": 12079,
  "travers": 31108,
  "ARA": 20266,
  "▁graphical": 17953,
  "▁purchase": 1138,
  "▁44": 5939,
  "Mill": 23806,
  "recognising": 30873,
  "proving": 13079,
  "▁Pepper": 15939,
  "ponent": 10969,
  "adia": 20712,
  "▁legislative": 10778,
  "▁requesting": 13672,
  "▁saliva": 24367,
  "Emory": 31173,
  "-7": 6785,
  "▁inventive": 22878,
  "▁Rift": 30884,
  "▁Went": 23412,
  "folia": 24123,
  "▁packet": 12036,
  "▁emerald": 27135,
  "captivated": 30990,
  "▁Fraser": 20135,
  "▁briefing": 18521,
  "▁say": 593,
  "▁Chemistry": 14152,
  "▁Unlock": 21897,
  "▁engross": 31550,
  "▁basically": 4216,
  "▁Left": 9964,
  "▁200": 2561,
  "▁Chile": 11716,
  "▁NHL": 15400,
  "▁depreciation": 26029,
  "NEW": 27414,
  "wak": 18676,
  "▁2020": 7621,
  "▁Pic": 10705,
  "▁chain": 2809,
  "zol": 20727,
  "▁survivors": 14205,
  "▁Theatre": 5748,
  "race": 10716,
  "▁diy": 14573,
  "▁Spirit": 4351,
  "▁Bathroom": 6359,
  "▁(4": 8507,
  "▁HELP": 26038,
  "▁fixes": 14542,
  "не": 21099,
  "▁Aid": 9509,
  "▁processor": 6271,
  "▁consider": 1160,
  "▁merger": 12104,
  "spec": 16565,
  "▁invitations": 13871,
  "▁farther": 17864,
  "▁synthesize": 25251,
  "▁unaffected": 29695,
  "▁examine": 4025,
  "▁Approximately": 17392,
  "▁recruiting": 11667,
  "▁Lyn": 13995,
  "▁EDT": 26944,
  "▁1933": 22680,
  "▁Les": 9913,
  "▁Wolf": 8321,
  "▁Look": 3424,
  "▁complexion": 24785,
  "inspired": 13348,
  "▁LI": 10965,
  "ани": 27900,
  "registr": 29059,
  "▁avoided": 11118,
  "▁making": 590,
  "▁maker": 7421,
  "▁replaced": 3855,
  "▁Kyoto": 25223,
  "▁Crusade": 26903,
  "▁warrant": 7183,
  "▁Pie": 12972,
  "▁Ku": 5305,
  "▁slippers": 27827,
  "▁providing": 1156,
  "▁Adult": 8466,
  "▁nursery": 12307,
  "▁Tampa": 12391,
  "▁dynamic": 3580,
  "dom": 6061,
  "▁surfaces": 6356,
  "▁timely": 6649,
  "▁deficiency": 15792,
  "▁expressed": 4667,
  "▁Thu": 19599,
  "Access": 27783,
  "▁hold": 1313,
  "ordan": 24958,
  "▁Alzheimer": 12289,
  "▁paperwork": 11587,
  "▁sinks": 17837,
  "▁yogurt": 12345,
  "▁Winnipeg": 22867,
  "▁dispense": 28821,
  "▁conducted": 3288,
  "▁2011.": 6171,
  "▁cubes": 18995,
  "▁Jet": 8495,
  "<0x1E>": 33,
  "▁Nike": 10253,
  "▁Uganda": 15424,
  "surgical": 24959,
  "▁bucket": 8341,
  "▁Judge": 7722,
  "▁anonymously": 27521,
  "▁gaming": 4719,
  "▁print": 1866,
  "▁flake": 18213,
  "▁realistic": 7064,
  "▁junkie": 31907,
  "▁Intensive": 28557,
  "onde": 20831,
  "▁Franc": 22310,
  "CAN": 24692,
  "▁Many": 1274,
  "▁Fried": 21425,
  "▁Actual": 23427,
  "▁Narrative": 31654,
  "▁research": 664,
  "▁2018.": 2911,
  "▁mindful": 15177,
  "345": 25241,
  "SOP": 28723,
  "<0x10>": 19,
  "azo": 21833,
  "▁cheque": 19597,
  "▁started": 770,
  ":19": 17115,
  "OR": 3456,
  "cine": 12733,
  "TP": 6897,
  "▁THANK": 22289,
  "▁parameters": 5695,
  "voy": 16508,
  "▁Medicaid": 12402,
  "▁clone": 15346,
  "▁movements": 6453,
  "▁Funding": 20545,
  "was": 11230,
  "▁affiliated": 11049,
  "▁tags": 7700,
  "▁insult": 16170,
  "▁notch": 14022,
  "mite": 14362,
  "Tri": 17773,
  "lloy": 29281,
  "▁tubular": 25979,
  "217": 22764,
  "waived": 28974,
  "▁Osaka": 28938,
  "▁Memo": 20756,
  "prednisone": 27967,
  "motor": 23901,
  "▁lowered": 16664,
  "▁Dollar": 11431,
  "▁dam": 10451,
  "onym": 21622,
  "▁Gabriel": 13554,
  "▁cavities": 26542,
  "▁fighting": 4373,
  "▁Coach": 7977,
  "channel": 14336,
  "cci": 11500,
  "▁adequate": 6244,
  "▁blast": 7018,
  "▁refreshing": 8365,
  "▁Experience": 4862,
  "final": 12301,
  "▁intermediate": 11776,
  "▁Caleb": 29131,
  "On": 8678,
  "▁Dexter": 29633,
  "▁Decorating": 16937,
  "▁cheaper": 5588,
  "▁portraits": 14920,
  "▁Regulatory": 23296,
  "▁smarter": 16282,
  "▁Following": 4741,
  "▁bloodstream": 28671,
  "TAR": 14923,
  "▁reflected": 8402,
  ":10": 10653,
  "a": 266,
  "▁Joanne": 29119,
  "▁Trans": 5922,
  "▁Rules": 9902,
  "▁turned": 1780,
  "▁licensor": 26810,
  "▁Soft": 8328,
  ".”": 1269,
  "▁AI": 4938,
  "▁defeat": 7084,
  "▁sustain": 9484,
  "▁Pokémon": 20901,
  "▁telephone": 4477,
  "▁preset": 20283,
  "▁lover": 11354,
  "▁intro": 20192,
  "hydro": 23909,
  ":09": 24006,
  "▁bonuses": 11430,
  "▁roman": 27429,
  "▁angle": 5151,
  "▁www": 2441,
  "mission": 9726,
  "▁Dim": 18722,
  "▁postpone": 27257,
  "▁Comb": 16634,
  "▁reprint": 24806,
  "▁Jobs": 10649,
  "log": 4109,
  "▁Disabilities": 27147,
  "▁pun": 16405,
  "▁Schwartz": 26512,
  "8.0": 22143,
  "▁literacy": 12220,
  "▁Construction": 5900,
  "▁billing": 10089,
  "clock": 12348,
  "▁torch": 20552,
  "▁osteoarthritis": 31744,
  "▁paragraph": 8532,
  "▁José": 26389,
  "▁Polyester": 27457,
  "▁Tsu": 23176,
  "▁fu": 9308,
  "▁railroad": 14383,
  "▁explicitly": 14096,
  "▁epidemic": 17633,
  "▁official": 1870,
  "▁noisy": 19536,
  "▁modifications": 11308,
  "▁Exclud": 30553,
  "▁Bosnia": 25590,
  "▁Sanctuary": 22910,
  "▁havoc": 24782,
  "▁Le": 1881,
  "2005": 22458,
  "▁Celebrity": 25475,
  "▁Lambert": 26677,
  "▁microscope": 21114,
  "▁mythical": 29152,
  "▁Classroom": 24148,
  "▁employed": 5382,
  "bot": 7396,
  "▁styles": 3494,
  "▁Broadway": 12252,
  "▁bowl": 2995,
  "▁Allison": 22150,
  "▁god": 8209,
  "▁looking": 581,
  "▁endeavor": 13278,
  "▁1:": 5951,
  "criticised": 29963,
  "▁osteo": 22535,
  "BAN": 26894,
  "pag": 21182,
  "▁****": 21776,
  "sufficient": 28122,
  "▁nasty": 15286,
  "▁novelist": 26135,
  "OVA": 25337,
  "▁endorsement": 13923,
  "▁mental": 2579,
  "▁complaining": 16964,
  "▁chapel": 19005,
  "eagerly": 23890,
  "▁unfold": 11018,
  "▁America": 1287,
  "▁Pok": 24961,
  "annotated": 29975,
  "▁Malik": 29202,
  "mailed": 22235,
  "▁Canada": 1717,
  "▁Uber": 12963,
  "▁GREAT": 17763,
  "2.5": 13423,
  "▁Pentecost": 30243,
  "▁revolution": 7486,
  "▁Seminary": 27098,
  "▁bursting": 24456,
  "▁Firstly": 15883,
  "▁Lamborghini": 31595,
  "▁downturn": 24892,
  "Basic": 31939,
  "ular": 8034,
  "▁dramatic": 6150,
  "▁africa": 20353,
  "▁paving": 21255,
  "▁regain": 13752,
  "utu": 20296,
  "Who": 16747,
  "Recognizing": 31353,
  "▁Substance": 26160,
  "▁relationships": 2487,
  "▁dolphin": 19263,
  "▁mankind": 17506,
  "▁imbalance": 17086,
  "Web": 14292,
  "▁involving": 4597,
  "▁serotonin": 28880,
  "---": 12516,
  "▁covenant": 17397,
  "▁Earlier": 10849,
  "▁touches": 10125,
  "▁Lamp": 12085,
  "▁fracking": 31486,
  "▁custody": 11238,
  "▁downloading": 10717,
  "▁culinary": 11787,
  "▁raised": 2534,
  "▁diagonal": 22726,
  "▁gum": 10132,
  "ginal": 25862,
  "cri": 6700,
  "▁Prediction": 27366,
  "▁appreciated": 6021,
  "5-3": 24029,
  "Option": 28226,
  "▁1965": 14876,
  "▁leaving": 2423,
  "best": 11192,
  "▁rides": 9714,
  "▁Convention": 7370,
  "▁twice": 3212,
  "▁climatic": 28955,
  "Query": 24813,
  "▁orientation": 9250,
  "▁lung": 9423,
  "▁uploading": 20215,
  "▁crow": 25705,
  "▁much": 418,
  "▁Uni": 10052,
  "2.5%": 28294,
  "▁remission": 30821,
  "ntine": 20601,
  "confronting": 30617,
  "ries": 3807,
  "▁Chop": 20924,
  "▁Epic": 18095,
  "little": 21370,
  "▁retard": 24818,
  "▁slug": 26332,
  "▁tune": 6682,
  "▁series": 911,
  "▁yesterday": 3642,
  "▁bottling": 31234,
  "▁Discount": 11606,
  "▁program": 633,
  "▁Equi": 15636,
  ",000,000": 18918,
  "6-2": 20418,
  "7.5": 18091,
  "gone": 13916,
  "▁OB": 15542,
  "&": 1020,
  "Biggest": 30560,
  "▁NEWS": 25203,
  "▁she": 440,
  "▁cabins": 19321,
  "▁Honor": 10771,
  "▁Laurence": 31822,
  "5.1": 16409,
  "▁compensate": 16142,
  "enem": 31784,
  "▁Desire": 25832,
  "▁Nicole": 16044,
  "▁categories": 4008,
  "▁Shelley": 29730,
  "▁encounters": 16585,
  "▁establish": 3797,
  "▁replenish": 23713,
  "▁healed": 21223,
  "▁Printable": 16511,
  "▁rat": 12544,
  "FT": 8156,
  "▁reusable": 20358,
  "▁inquire": 17054,
  "▁ornament": 20640,
  "▁recorded": 3247,
  "102": 22575,
  "▁masonry": 26500,
  "▁potential": 1055,
  "▁Non": 4752,
  "▁speakers": 4836,
  "Haunted": 31835,
  "▁Hague": 29166,
  "▁luminous": 28882,
  "▁advised": 6428,
  "▁Southampton": 21624,
  "▁stepping": 13273,
  "hair": 15496,
  "▁belonging": 12493,
  "disk": 29599,
  "▁armed": 8816,
  "039;": 30278,
  "▁GUI": 17612,
  "contin": 19606,
  "▁paycheck": 21387,
  "▁Appropriate": 30566,
  "▁Douglas": 10152,
  "DES": 17673,
  "▁Ward": 12223,
  "CHI": 23946,
  "▁crown": 6574,
  "▁writers": 4229,
  "▁Chen": 12137,
  "▁distinguish": 11205,
  "▁chances": 4802,
  "▁(6": 10126,
  "▁quantity": 5706,
  "▁Dresden": 31592,
  "▁lunar": 24766,
  "▁wristband": 31898,
  "▁virgin": 17803,
  "fig": 28926,
  "▁absorb": 7364,
  "▁wiring": 5708,
  "▁Mandarin": 25521,
  "Young": 27866,
  "▁Return": 9178,
  "▁beachfront": 30069,
  "▁cardboard": 14749,
  "▁brim": 22496,
  "CN": 11329,
  "▁Polk": 27664,
  "Wire": 26616,
  "▁lights": 2983,
  "▁blazer": 28236,
  "▁entirely": 3400,
  "▁night": 766,
  "high": 5506,
  "▁Valley": 2646,
  "▁immuno": 12243,
  "▁Saga": 22483,
  "vocation": 13282,
  "chemistry": 18593,
  "pitting": 31095,
  "practising": 28951,
  "▁impairment": 15230,
  "▁Taliban": 22642,
  "▁moderately": 23730,
  "stad": 14264,
  "▁wife": 2041,
  "▁Slowly": 27034,
  "▁Qualcomm": 25860,
  "lie": 3776,
  "▁beaches": 6231,
  "▁heel": 12162,
  "▁terrorists": 17263,
  "-19": 3854,
  "<0x7B>": 126,
  "▁adorn": 21489,
  "limit": 22044,
  "▁tie": 4537,
  "ix": 4024,
  "▁impeccable": 22375,
  "surgery": 28647,
  "▁delight": 7162,
  "grabbed": 13856,
  "▁Ji": 6721,
  "▁discover": 2339,
  "▁Fiat": 26262,
  "Heart": 28417,
  "▁preferential": 30313,
  "▁penetrate": 17160,
  "▁Grab": 13122,
  "▁Somerset": 21098,
  "VIN": 25800,
  "▁EASY": 31781,
  "Advertise": 27566,
  "▁Pa": 3104,
  "▁jewel": 11812,
  "▁depend": 4662,
  "▁fre": 17114,
  "▁Milford": 29829,
  "▁finishes": 8434,
  "▁blends": 14951,
  "<0x18>": 27,
  "▁rage": 16392,
  "rece": 25802,
  "chie": 17330,
  "▁veggie": 23846,
  "▁depth": 3366,
  "▁diagram": 5501,
  "▁SSD": 16715,
  "▁Suggest": 24949,
  "▁Wedding": 6215,
  "confidence": 22609,
  "▁dinner": 2140,
  "▁Prices": 10557,
  "▁accomodat": 29784,
  "▁Helm": 26062,
  "154": 25498,
  "▁absorbed": 13432,
  "▁loudly": 26551,
  "abha": 23628,
  "▁hairdresser": 31176,
  "an": 452,
  "▁Kang": 26845,
  "▁Emmy": 23915,
  "▁parents": 1361,
  "▁LIMITED": 24158,
  "/8": 8694,
  "▁Interestingly": 16298,
  "hul": 15269,
  "▁intermediary": 30001,
  "▁Pacific": 4225,
  "▁exposition": 29718,
  "▁Elaine": 27000,
  "▁vary": 3602,
  "▁Dash": 19632,
  "▁introvert": 28873,
  "▁bush": 11203,
  "▁miss": 2558,
  "▁india": 12794,
  "▁attempted": 8540,
  "810": 26419,
  "▁stripe": 22544,
  "▁Shoot": 21333,
  "record": 18501,
  "call": 13007,
  "TT": 10160,
  "▁rum": 11866,
  "▁abundant": 10679,
  "▁Virginia": 3760,
  "▁Saul": 23925,
  "▁Bluff": 25642,
  "▁$1,000": 15056,
  "▁highly": 1232,
  "saver": 19466,
  "▁privacy": 3244,
  "2.4": 23336,
  "Mod": 18138,
  "▁Grow": 14538,
  "▁favor": 4451,
  "laz": 18688,
  "▁retailer": 10221,
  "▁Actually": 8847,
  "▁biomedical": 25836,
  "▁Second": 3814,
  "▁electromagnetic": 22853,
  "(5)": 22387,
  "computerized": 29835,
  "▁Dear": 13153,
  "<0x3F>": 66,
  "Existing": 26091,
  "▁simple": 813,
  "itive": 18289,
  "emi": 6591,
  "stock": 8497,
  "▁comparatively": 25660,
  "DRED": 28627,
  "▁ethno": 26084,
  "▁patent": 6978,
  "▁sealant": 26981,
  "Her": 17996,
  "▁room": 617,
  "But": 8517,
  "▁unused": 16194,
  "unpaid": 20191,
  "▁antibodies": 19588,
  "▁involved": 1265,
  "▁offence": 15119,
  "storm": 15774,
  "▁Society": 2711,
  "▁Marilyn": 25884,
  "▁Bou": 11937,
  "▁Dev": 8648,
  "▁employee": 2658,
  "▁Province": 14558,
  "▁obesity": 12923,
  "▁MacDonald": 29720,
  "▁conquest": 29438,
  "▁Teachers": 12502,
  "▁consumers": 2798,
  "▁Kaz": 21018,
  "▁bounce": 11178,
  "ring": 2792,
  "▁eligible": 3966,
  "▁neuro": 6762,
  "▁hu": 18308,
  "▁Zar": 20579,
  "▁engaging": 4810,
  "▁scary": 9720,
  "▁60": 1770,
  "▁Louisville": 17755,
  "▁immortal": 22049,
  "▁nominal": 19117,
  "▁pride": 4191,
  "▁criminals": 17981,
  "570": 24390,
  "Utilize": 30470,
  "267": 29278,
  "▁throughout": 980,
  "▁con": 2282,
  "tern": 8115,
  "pore": 15200,
  "▁copyright": 5560,
  "▁Nicholas": 15083,
  "▁transforming": 13742,
  "▁loaf": 19913,
  "▁SAFE": 27394,
  "▁sounds": 2383,
  "▁Deck": 10285,
  "Sub": 20902,
  "▁varying": 9164,
  "▁differential": 13811,
  "▁assign": 9200,
  "▁certainty": 17931,
  "▁Violet": 25671,
  "▁chassis": 15522,
  "▁grieving": 28272,
  "Jesus": 29369,
  "▁Task": 11632,
  "glu": 10924,
  "▁Roh": 22631,
  "▁accompany": 13287,
  "▁130": 10690,
  "▁shaped": 6623,
  "next": 24228,
  "▁Kel": 17793,
  "▁allocated": 13027,
  "▁AR": 7373,
  "▁Injury": 21162,
  "▁veggies": 12265,
  "mistakenly": 29710,
  "DVD": 26335,
  "▁abortion": 13071,
  "▁agile": 16606,
  "▁brown": 3033,
  "▁complementary": 15786,
  "▁confirmed": 4052,
  "▁Barton": 25560,
  "▁Lessons": 21703,
  "notch": 18712,
  "▁team": 517,
  "▁septic": 22739,
  "▁Jamaica": 14357,
  "▁accountable": 12255,
  "deau": 30594,
  "▁calligraphy": 31136,
  "▁productivity": 5200,
  "Ray": 20293,
  "confirming": 23707,
  "mal": 5779,
  "▁Strength": 17165,
  "▁actual": 1938,
  "initi": 15300,
  "▁cam": 11390,
  "marin": 25352,
  "iggle": 25717,
  "los": 7625,
  "HAM": 26358,
  "▁LTD": 19905,
  "▁hosted": 4599,
  "▁optimal": 5967,
  "<extra_id_85>": 32014,
  "▁steadily": 15310,
  "▁chickpea": 28363,
  "▁Crane": 23722,
  "▁plaza": 26861,
  "▁Slim": 19160,
  "▁thank": 2051,
  "▁Accommodation": 23554,
  "protect": 17601,
  "/05/": 29318,
  "▁Flyer": 22897,
  "▁Using": 2722,
  "<0x1C>": 31,
  "▁cancer": 1822,
  "subsidized": 29257,
  "▁Hugo": 23815,
  "▁gotta": 19424,
  "3-7": 25294,
  "▁restrain": 19725,
  "rid": 5246,
  "▁FX": 16927,
  "▁Contact": 2577,
  "tting": 9259,
  "▁Support": 3285,
  "▁neg": 27311,
  "sailed": 26901,
  "▁Diet": 11064,
  "▁currency": 5012,
  "▁Move": 10471,
  "▁preparedness": 26890,
  "cle": 4800,
  "▁NC": 5302,
  "▁inclination": 25234,
  "BUSINESS": 26259,
  "RP": 5048,
  "▁spur": 12642,
  "elson": 22933,
  "▁uninstall": 18001,
  "▁grain": 6789,
  "▁wake": 5153,
  "zio": 18976,
  "LIMITATION": 31397,
  "1999": 30356,
  "Studio": 31104,
  "▁Energ": 25796,
  "▁REALLY": 23382,
  "▁recovery": 2980,
  "▁Woods": 12952,
  "▁Analyst": 16898,
  "▁burgundy": 31622,
  "0-$": 29035,
  "▁Without": 4496,
  "▁meters": 6059,
  "▁essays": 7238,
  "▁assemble": 12830,
  "▁slate": 14523,
  "▁territorial": 23550,
  "▁avatar": 23114,
  "Where": 19487,
  "▁sauna": 17251,
  "▁&": 438,
  "chased": 30859,
  "Typically": 11070,
  "▁terrible": 7001,
  "229": 24153,
  "▁pineapple": 18021,
  "▁customize": 8190,
  "▁logistics": 9981,
  "▁trench": 24361,
  "40,000": 15375,
  "idine": 23316,
  "▁Canon": 9310,
  "▁Sent": 19559,
  "▁ratings": 6521,
  "▁Gates": 15726,
  "PCC": 24292,
  "▁Ob": 8042,
  "ERC": 24695,
  "▁Betty": 19511,
  "▁scheduled": 3376,
  "▁Jen": 10076,
  "▁Project": 2603,
  "▁SR": 13048,
  "<0x61>": 100,
  "▁bounty": 26078,
  "▁prolific": 21245,
  "brain": 24455,
  "▁Victory": 22448,
  "▁Christians": 7409,
  "pra": 11462,
  "▁Colour": 13030,
  "▁501(": 26264,
  "▁starch": 20275,
  "▁weighing": 15749,
  "▁European": 1627,
  "▁smart": 2411,
  "▁infrastructure": 2895,
  "▁conveniently": 11265,
  "▁Responsive": 30342,
  "▁grease": 14435,
  "▁arose": 21362,
  "<0x8A>": 141,
  "▁parliament": 14841,
  "▁Vienna": 14008,
  "access": 11815,
  "▁afternoon": 2822,
  "Developed": 24216,
  "▁sorted": 14330,
  "▁Fisher": 11945,
  "naut": 19522,
  "▁menopause": 30158,
  "▁Manuel": 22976,
  "▁anime": 16966,
  "▁curve": 8178,
  "fee": 13794,
  "▁Grace": 8643,
  "Stone": 28826,
  "▁£6": 24565,
  "▁fill": 1954,
  "▁attorney": 3655,
  "▁Papers": 16675,
  "▁lagoon": 24253,
  "▁homicide": 27788,
  "▁Raj": 8821,
  "164": 25577,
  "▁2017.": 3427,
  "▁booking": 4138,
  "▁boots": 6642,
  "▁Comment": 11486,
  "▁Mixed": 21130,
  "▁alleviate": 15155,
  "▁2:00": 23351,
  "democrat": 23056,
  "GV": 23546,
  "hart": 10982,
  "confessed": 30205,
  "▁Snap": 13931,
  "▁geographic": 13609,
  "▁300,000": 26879,
  "uspicious": 29149,
  "▁Neptune": 29124,
  "TY": 9668,
  "pertaining": 13699,
  "▁hardly": 7065,
  "▁calorie": 17752,
  "___": 16196,
  "▁@": 2566,
  "▁10-": 7259,
  "▁deadlines": 14441,
  "▁Scroll": 18084,
  "▁citizenship": 15021,
  "▁Want": 4361,
  "▁drawstring": 31260,
  "▁chipset": 27965,
  "▁Edison": 25209,
  "▁140": 10622,
  "▁circles": 9836,
  "Sadly": 13315,
  "▁Mess": 18002,
  "gar": 3307,
  "▁relinquish": 30263,
  "07": 5247,
  "▁Sweepstakes": 31764,
  "heaviest": 31271,
  "▁gases": 16359,
  "▁absence": 6180,
  "е": 2277,
  "science": 14129,
  "▁Mul": 12177,
  "▁Trip": 11371,
  "rren": 23462,
  "strategi": 26456,
  "▁Clari": 23425,
  "▁Andre": 15946,
  "dren": 21096,
  "▁ownership": 5347,
  "▁Mahal": 28466,
  "▁Heel": 29678,
  "▁Wizard": 15879,
  "1-0": 16679,
  "▁broadcasting": 19322,
  "▁cultivate": 18245,
  "▁hull": 19174,
  "▁burden": 6203,
  "▁0800": 29883,
  "performing": 21893,
  "analytic": 22572,
  "▁upheaval": 31496,
  "]]": 25229,
  "▁SharePoint": 19974,
  "▁alike": 6410,
  "▁Liu": 18325,
  "▁commented": 12784,
  "▁convinced": 8237,
  "▁localized": 25447,
  "▁It": 324,
  "weakening": 31001,
  "▁hydro": 6969,
  "▁lament": 23866,
  "▁skylight": 29238,
  "▁rank": 6313,
  "▁AA": 10511,
  "▁cotton": 4700,
  "EW": 17111,
  "▁chips": 6245,
  "▁Share": 5429,
  "▁Beach": 2501,
  "▁PGA": 24209,
  "▁sponge": 15885,
  "▁Singh": 10798,
  "▁Lack": 22306,
  "▁mor": 11476,
  "▁Solid": 11353,
  "proximate": 29711,
  "▁Processes": 30424,
  "▁elevate": 18182,
  "▁discouraged": 23049,
  "▁Cruz": 12507,
  "LIN": 15331,
  "▁tagged": 4680,
  "Price": 29346,
  "▁Musk": 19615,
  "420": 17373,
  "awaited": 20500,
  "Wishing": 30851,
  "var": 6403,
  "▁Show": 2754,
  "▁stuck": 4401,
  "▁robust": 5849,
  "tool": 13656,
  "▁tasks": 3127,
  "▁beta": 8990,
  "▁Middlesex": 30806,
  "ESS": 13974,
  "Word": 28846,
  "cke": 15692,
  "▁Delta": 10037,
  "▁suppression": 23185,
  "▁adjective": 25400,
  "▁Threat": 24609,
  "▁Stag": 28691,
  "▁lifestyle": 3078,
  "▁Flame": 19432,
  "▁landscapes": 12032,
  "▁kg": 12045,
  "▁pricing": 3890,
  "2.1": 11011,
  "▁Product": 4469,
  "▁atmospheric": 15868,
  "▁Lit": 16179,
  "Document": 30036,
  "nag": 20588,
  "▁again": 614,
  "olina": 23990,
  "moni": 19372,
  "fry": 28204,
  "▁Consequently": 14514,
  "▁involve": 5360,
  "▁power": 644,
  "▁conferencing": 28479,
  "▁abort": 29950,
  "▁Kaiser": 25709,
  "quisition": 28099,
  "▁Identity": 19847,
  "▁Christmas": 1437,
  "▁believer": 19213,
  "▁lining": 9572,
  "▁deck": 3444,
  "▁Mart": 16336,
  "▁Tom": 2977,
  "inian": 23683,
  "▁Winning": 22989,
  "antitrust": 31765,
  "▁wager": 18990,
  "▁targets": 6006,
  "▁Trial": 13415,
  "▁Kendall": 27577,
  "back": 1943,
  "▁fauna": 24033,
  "▁Rotterdam": 29982,
  "▁mortality": 13013,
  "▁Arrow": 17624,
  "▁Ki": 4356,
  "Part": 14123,
  "▁seperate": 30397,
  "▁Bed": 6136,
  "▁estrogen": 27572,
  "▁burrito": 30426,
  "▁classmates": 20385,
  "▁(12": 14598,
  "▁disgust": 20591,
  "▁volatility": 16240,
  "▁constructed": 5608,
  "▁concentrating": 23058,
  "▁Cupcake": 30846,
  "▁represented": 4896,
  "▁Franklin": 10495,
  "▁snapshot": 14595,
  "▁bond": 5315,
  "▁Waterproof": 23883,
  "▁Index": 8281,
  "▁citation": 14467,
  "▁peer": 7034,
  "▁challenged": 9845,
  "▁ask": 1076,
  "▁Essence": 30433,
  "<0x73>": 118,
  "▁Metropolitan": 14788,
  "▁Average": 15194,
  "▁hues": 21155,
  "▁robe": 19461,
  "▁defrost": 31975,
  "▁Erik": 16460,
  "▁disinfect": 27059,
  "▁demonstrator": 30395,
  "▁Still": 3883,
  "history": 26787,
  "mile": 9322,
  "market": 8011,
  "VIC": 26679,
  "▁TV": 1428,
  "reference": 17617,
  "▁mac": 9804,
  "▁kiddos": 29430,
  "▁samsung": 29212,
  "▁listening": 3775,
  "poor": 26272,
  "▁temporarily": 11527,
  "▁mule": 29595,
  "▁questioned": 15525,
  "SF": 12197,
  "sponsored": 22269,
  "▁quite": 896,
  "til": 4950,
  "▁Paypal": 22403,
  "3⁄4": 24939,
  "live": 8954,
  "▁torture": 14743,
  "▁demonstration": 10800,
  "▁Yun": 22578,
  "▁encouraged": 4630,
  "▁guiding": 13589,
  "▁Savior": 21876,
  "▁wardrobe": 8826,
  "▁traverse": 24009,
  "<0x8F>": 146,
  "▁definitive": 16597,
  "▁Greetings": 29535,
  "▁bomber": 23209,
  "▁Pop": 6563,
  "place": 7655,
  "yes": 8121,
  "brewed": 26487,
  "urton": 30780,
  "▁bank": 1755,
  "1.": 5745,
  "▁trio": 14190,
  "▁Puerto": 11963,
  "▁driver": 2049,
  "▁dietary": 10742,
  "ated": 1979,
  "▁Operations": 10441,
  "▁business": 448,
  "▁unrestricted": 28581,
  "▁meaning": 2138,
  "▁Ribbon": 24984,
  "DR": 7754,
  "▁Costco": 26388,
  "▁ready": 995,
  "▁inflammatory": 17674,
  "▁cre": 10086,
  "▁VC": 15977,
  "undisclosed": 31464,
  "▁Refuge": 20950,
  "▁Terri": 15407,
  "med": 4635,
  "▁profitable": 9025,
  "▁Mourinho": 30769,
  "zone": 10664,
  "▁Choir": 22407,
  "summarized": 28822,
  "▁Buck": 9514,
  "▁Gab": 15000,
  "▁Calif": 17325,
  "AU": 10412,
  "▁electric": 2805,
  "Play": 13763,
  "ions": 4134,
  "▁candidate": 3620,
  "▁Possess": 30377,
  "▁Varsity": 31320,
  "▁joking": 27839,
  "▁Southwest": 14019,
  "▁terrorism": 12727,
  "▁Go": 1387,
  "zal": 21317,
  "▁cinematic": 24211,
  "▁mines": 17542,
  "▁booster": 18320,
  "▁flu": 5580,
  "▁jewellery": 12278,
  "▁smoother": 17532,
  "▁Stefan": 18444,
  "▁player": 1653,
  "▁windy": 23159,
  "▁compass": 22821,
  "▁taught": 3261,
  "▁sympathetic": 22252,
  "bit": 3228,
  "lope": 15618,
  "▁tricks": 8697,
  "▁matters": 3343,
  "▁1923": 26657,
  "new": 4317,
  "▁airflow": 24174,
  "▁trading": 2574,
  "<0xA6>": 169,
  "vapor": 28537,
  "▁Wol": 21682,
  "▁festivals": 10507,
  "▁Tasmania": 25084,
  "link": 5921,
  "▁cat": 2783,
  "▁swimming": 4160,
  "▁evangelist": 30551,
  "▁remembered": 9433,
  "▁facts": 4500,
  "р": 11577,
  "/2016": 23972,
  "▁venue": 4304,
  "▁Ve": 5234,
  "▁Natalie": 21571,
  "▁help": 400,
  "arina": 23563,
  "kha": 12534,
  "▁lobby": 11637,
  "god": 16488,
  "▁drawings": 9111,
  "▁cues": 21828,
  "▁Operation": 12565,
  "▁Approx": 29423,
  "▁Reception": 22437,
  "sheltered": 29938,
  "▁Tender": 26174,
  "▁prudent": 23502,
  "crease": 16786,
  "▁sushi": 20152,
  "▁Memphis": 16087,
  "▁Hero": 11924,
  "▁React": 24227,
  "▁Olson": 30228,
  "▁plant": 1466,
  "▁jazz": 7714,
  "▁Afternoon": 29824,
  "hydr": 17747,
  "tell": 9621,
  "their": 24117,
  "▁fearless": 27214,
  "▁SKU": 27738,
  "▁Curtain": 18913,
  "▁Platinum": 15754,
  "▁bonds": 8221,
  "garde": 18081,
  "▁public": 669,
  "▁robbed": 29267,
  "▁redesigned": 22530,
  "▁acknowledgment": 29706,
  "hard": 6872,
  "▁repeatedly": 10029,
  "▁Confederation": 31537,
  "noticeably": 28246,
  "▁Ark": 17882,
  "▁passengers": 6454,
  "Microsoft": 31580,
  "▁Quad": 16741,
  "Facing": 30741,
  "▁strengthen": 5984,
  "ridge": 8387,
  "▁Criminal": 14801,
  "▁upfront": 17943,
  "expressly": 17904,
  "▁Anniversary": 15179,
  "host": 9009,
  "<0xD5>": 216,
  "▁clinical": 2886,
  "▁comb": 13908,
  "▁acceleration": 16505,
  "much": 24041,
  "▁Wallace": 18285,
  "▁INTER": 19477,
  "▁TRUE": 31795,
  "▁extremely": 1731,
  "▁Independence": 15658,
  "<extra_id_95>": 32004,
  "▁pumped": 23357,
  "▁developers": 3987,
  "▁dismantle": 31443,
  "▁CON": 8264,
  "▁bulk": 6156,
  "▁festivities": 20894,
  "▁land": 1353,
  "Product": 29161,
  "▁pitcher": 14230,
  "▁Jacobs": 18622,
  "▁vein": 16596,
  "▁devastated": 25186,
  "▁Seed": 12959,
  "▁Liberia": 26760,
  "▁replacement": 2733,
  "thought": 21985,
  "choice": 26589,
  "▁Milwaukee": 14278,
  "▁Heidi": 25617,
  "iously": 18839,
  "breezy": 31720,
  "▁snuggl": 24838,
  "▁readings": 15757,
  "▁intensifie": 27348,
  "▁dear": 7110,
  "▁Therapist": 24869,
  "▁reimburse": 22398,
  "chrys": 31894,
  "▁Enough": 23879,
  "▁beyond": 1646,
  "▁IV": 8452,
  "UB": 10545,
  "▁Ukrainian": 15664,
  "▁options": 922,
  "▁Civil": 5587,
  "▁summer": 1174,
  "▁Greek": 4706,
  "▁bibliography": 28708,
  "▁Directive": 22453,
  "▁Dynasty": 26064,
  "▁personalize": 21365,
  "extending": 12236,
  "▁Arn": 20843,
  "▁fields": 3040,
  "rite": 8627,
  "▁decreased": 8564,
  "▁shaft": 10103,
  "▁$5,000": 21289,
  "▁joyful": 18287,
  "▁Afghanistan": 9554,
  "▁Trustee": 27176,
  "▁keepsake": 29470,
  "▁looks": 1261,
  "▁booth": 8000,
  "▁responded": 7548,
  "▁Grammy": 19936,
  "NASDAQ": 19908,
  "▁eBay": 10427,
  "▁Ty": 6836,
  "▁loop": 5877,
  "▁fol": 17664,
  "▁4": 537,
  "▁tilt": 13107,
  "▁traditions": 8165,
  "rie": 4182,
  "▁Nature": 6189,
  "len": 4365,
  "▁foes": 30921,
  "By": 16539,
  "▁Polytechnic": 30701,
  "▁strongest": 12258,
  "▁prizes": 8767,
  "▁unhealthy": 16657,
  "▁envisage": 28804,
  "▁waterfront": 17681,
  "▁JP": 19571,
  "▁Member": 5713,
  "remarkably": 18118,
  "amplify": 26246,
  "kilometre": 31263,
  "▁Bus": 6303,
  "▁Awareness": 18412,
  "▁texas": 24151,
  "▁Chronic": 23941,
  "▁Odd": 17822,
  "contained": 27218,
  "▁Chest": 25540,
  "▁stent": 26182,
  "<0x3E>": 65,
  "▁dirt": 6192,
  "▁measuring": 7446,
  "▁breast": 4461,
  "▁Entrepreneur": 21620,
  "737": 24526,
  "▁Comedy": 20920,
  "▁brine": 31226,
  "rado": 14182,
  "▁judgments": 17602,
  "Anim": 25544,
  "AHA": 26614,
  "▁stand": 1505,
  "▁brainstorming": 27805,
  "▁conceal": 16475,
  "▁senior": 2418,
  "funded": 16384,
  "▁editor": 4349,
  "tossing": 30708,
  "▁battery": 2489,
  "▁unequal": 29650,
  "▁acidity": 22765,
  "ussi": 18398,
  "▁irrigation": 15003,
  "▁sensitivity": 9209,
  "▁Arrive": 26688,
  "▁trait": 17258,
  "▁rally": 9907,
  "▁Canal": 16889,
  "▁intimidating": 21359,
  "▁thirteen": 19329,
  "▁deposits": 10282,
  "responsive": 28127,
  "10": 1843,
  "▁Rachel": 10565,
  "▁fact": 779,
  "▁incentive": 11619,
  "delve": 21430,
  "▁freeze": 9523,
  "▁crossover": 18946,
  "▁Valentine": 8025,
  "▁heap": 16453,
  "▁Mas": 7780,
  "▁Hendrick": 30888,
  "▁glazed": 18054,
  "plica": 21016,
  "▁promises": 7338,
  "▁caught": 3364,
  "▁Cali": 16755,
  "▁accessory": 11895,
  "▁sclerosis": 30162,
  "▁Each": 1434,
  "▁heads": 5132,
  "▁Robertson": 22435,
  "▁commodity": 14810,
  "▁express": 3543,
  "KR": 22406,
  "▁contest": 5063,
  "▁shiny": 12160,
  "YE": 23634,
  "▁understated": 26937,
  "ITA": 21530,
  "▁possibility": 3705,
  "▁Window": 9295,
  "▁purify": 28382,
  "fruit": 21194,
  "▁chairs": 4649,
  "▁mileage": 14800,
  "▁solitary": 22422,
  "stress": 15125,
  "▁crush": 15215,
  "▁unit": 1545,
  "▁Kirk": 12112,
  "290": 21189,
  "▁direction": 2115,
  "▁advantageous": 20966,
  "▁satisfy": 7271,
  "▁knowledgeable": 6544,
  "degree": 13735,
  "▁claimant": 22608,
  "▁Mode": 9831,
  "▁trailer": 6137,
  "▁Kiwi": 26128,
  "villa": 23117,
  "▁GREEN": 29484,
  "▁Maintenance": 11722,
  "21": 3861,
  "lian": 8841,
  "raft": 12229,
  "▁Sprinkle": 18937,
  "▁Beyond": 8809,
  "▁Including": 19300,
  "▁Tai": 14847,
  "▁attacks": 4165,
  "TECH": 22689,
  "<extra_id_56>": 32043,
  "▁recipes": 4039,
  "OM": 11379,
  "▁Travel": 3772,
  "▁qualification": 11581,
  "▁rebuild": 13388,
  "Two": 24202,
  "▁eat": 1613,
  "▁dehydration": 27276,
  "▁polishing": 21992,
  "▁logos": 14354,
  "▁128": 14114,
  "▁Hospitality": 23295,
  "▁faces": 5450,
  "debuted": 27507,
  "▁secret": 3265,
  "revived": 28893,
  "▁quiet": 3193,
  "▁Hab": 25164,
  "▁brushes": 16559,
  "▁insurer": 17938,
  "▁Indonesian": 19882,
  "▁TIME": 15259,
  "▁voice": 1880,
  "ATING": 28035,
  "▁cried": 17805,
  "cooperating": 30465,
  "Revised": 27249,
  "pre": 4541,
  "▁quake": 30386,
  "above": 24048,
  "served": 15901,
  "lav": 10157,
  "5-7": 18457,
  "▁patrol": 14809,
  "▁bureaucratic": 31036,
  "▁KS": 15931,
  "▁seldom": 20340,
  "politan": 27923,
  "▁Rodriguez": 21001,
  "▁German": 2580,
  "▁ver": 6155,
  "▁if": 343,
  "▁Completion": 30658,
  "exploiting": 31912,
  "bu": 6276,
  "▁arrested": 6805,
  "▁derby": 30523,
  "▁Townsend": 30787,
  "▁Blogger": 19547,
  "▁reddish": 30140,
  "▁Example": 12884,
  "▁MD": 5420,
  "▁Prophet": 17469,
  "ли": 18556,
  "▁pill": 13386,
  "▁preferred": 4203,
  "▁lengthy": 11590,
  "▁son": 1817,
  "▁lost": 1364,
  "▁physical": 1453,
  "4.2": 16002,
  "▁Banks": 14834,
  "▁schools": 1705,
  "▁coal": 5532,
  "▁base": 1373,
  "inflamed": 31244,
  "▁1/3": 18209,
  "▁Taurus": 31446,
  "▁axis": 12732,
  "ement": 6160,
  "▁prose": 14470,
  "▁FIG": 5970,
  "▁fiat": 31527,
  "▁until": 630,
  "▁blouse": 24670,
  "▁Maharashtra": 24917,
  "▁global": 1343,
  "▁Thus": 3592,
  "▁Cheryl": 24978,
  "check": 9431,
  "▁recurrence": 27037,
  "▁containers": 7380,
  "000+": 29280,
  "Str": 12253,
  "▁throne": 18272,
  "▁$4": 5049,
  "▁ketchup": 30976,
  "▁Etsy": 20470,
  "▁Bal": 5575,
  "ranging": 20597,
  "Australia": 27767,
  "unforeseen": 25507,
  "▁Hastings": 26714,
  "▁chicken": 2717,
  "Page": 19003,
  "gawa": 26287,
  "▁refreshments": 22137,
  "Promoting": 31513,
  "▁fundamental": 4732,
  "▁determine": 1720,
  "▁focus": 1013,
  "▁Kri": 24546,
  "<0xD1>": 212,
  "▁commissioning": 24845,
  "▁Toyota": 7620,
  "▁Sally": 18506,
  "pat": 7943,
  "▁с": 12512,
  "punct": 30104,
  "cross": 11972,
  "▁2014": 2046,
  "▁Jewelry": 17998,
  "▁Locksmith": 21711,
  "▁expensive": 2208,
  "GR": 12759,
  "▁JPEG": 29079,
  "▁hype": 17233,
  "▁Slack": 27082,
  "bro": 8550,
  "▁triggered": 12888,
  "▁traces": 16974,
  "▁tweak": 12388,
  "borg": 22237,
  "vision": 9580,
  "MLS": 22690,
  "▁dynamics": 9437,
  "▁Strat": 17099,
  "▁capita": 24068,
  "8.7": 27920,
  "▁Dimensions": 19000,
  "containing": 27659,
  "▁BI": 12260,
  "went": 14342,
  "▁Brady": 18997,
  "▁coordinator": 11262,
  "▁caution": 10468,
  "211": 22001,
  "▁BTW": 23809,
  "▁Penguin": 19157,
  "▁dissolved": 19153,
  "▁Glaz": 26069,
  "▁effortlessly": 15830,
  "▁8": 752,
  "mAh": 22864,
  "▁scoring": 7298,
  "▁Given": 6603,
  "▁glean": 28757,
  "▁northeast": 18319,
  "jon": 19976,
  "▁Nagar": 25940,
  "▁dungeon": 25222,
  "▁capsules": 21222,
  "▁washer": 9713,
  "▁accelerating": 24035,
  "fjord": 31298,
  "▁skincare": 18322,
  "▁uniform": 5740,
  "▁no": 379,
  "▁20,": 11240,
  "▁classify": 23897,
  "RIP": 22601,
  "Pal": 23811,
  "▁worked": 1195,
  "▁Graphics": 19521,
  "-20": 6062,
  "▁DNA": 5281,
  "▁40": 1468,
  "▁important": 546,
  "▁guinea": 31004,
  "▁puzzles": 16160,
  "▁28": 2274,
  "▁uplift": 25908,
  "▁Alma": 23229,
  "▁animals": 2397,
  "▁explorer": 18719,
  "4%)": 27652,
  "▁harvested": 18642,
  "▁apparel": 14067,
  "▁800": 7173,
  "▁targeted": 5512,
  "▁0.1": 13137,
  "million": 12210,
  "▁IP": 3495,
  "▁secrecy": 29572,
  "▁hall": 5433,
  "▁effects": 1644,
  "▁turn": 977,
  "▁prove": 3161,
  "▁righteousness": 22889,
  "circulated": 27623,
  "▁GOOD": 20126,
  "▁Gen": 4944,
  "Exception": 23506,
  "▁inbox": 17102,
  "phenol": 23867,
  "264": 22048,
  "▁vibe": 10218,
  "▁franc": 20563,
  "▁makers": 7744,
  "schedule": 28921,
  "urinary": 24720,
  "▁Jennifer": 9656,
  "▁Snake": 24413,
  "▁operational": 5515,
  "▁repo": 22352,
  "▁demographic": 9579,
  "idge": 17909,
  "▁arm": 3421,
  "▁Scratch": 26684,
  "▁quantum": 13982,
  ":12": 16208,
  "▁wondered": 10564,
  "▁caller": 19673,
  "▁housed": 16459,
  "▁MPG": 26392,
  "GP": 12270,
  "BS": 6087,
  "▁31,": 7792,
  "▁masks": 17516,
  "▁Chamber": 6889,
  "▁disrupt": 16207,
  "MOUNT": 31880,
  "▁System": 2345,
  "▁insist": 9365,
  "▁rec": 6927,
  "▁aspirations": 17740,
  "▁hospice": 25252,
  "▁getaway": 14378,
  "▁Movies": 17413,
  "▁Amy": 9332,
  "▁Rome": 6511,
  "▁odour": 29424,
  "each": 9979,
  "▁13.": 10021,
  "▁generation": 2450,
  "▁Prayer": 15602,
  "▁Reduce": 13950,
  "▁tonnes": 17295,
  "▁Kindergarten": 25903,
  "▁arts": 3837,
  "▁books": 1255,
  "indicate": 30857,
  "▁Marketing": 4038,
  "▁tabs": 14359,
  "▁knew": 1769,
  "▁anymore": 4993,
  "▁Strategies": 19958,
  "▁killer": 9532,
  "2).": 15672,
  "▁circuit": 4766,
  "▁supplementation": 27419,
  "▁botanical": 21210,
  "▁adolescence": 30877,
  "oshi": 20988,
  "MEA": 25423,
  "roll": 6533,
  "sion": 4449,
  "▁Quality": 4295,
  "▁truly": 1632,
  "haul": 26416,
  "▁Dubai": 8057,
  "▁Lighting": 11420,
  "▁Davidson": 20703,
  "▁distal": 20742,
  "load": 8039,
  "▁Conc": 19363,
  "ong": 3010,
  "▁professional": 805,
  "▁His": 1031,
  "lroy": 30028,
  "▁bulletin": 21934,
  "3-5": 25240,
  "220": 20148,
  "▁Gal": 9629,
  "lift": 9847,
  "boxes": 21111,
  "▁Policy": 4988,
  "▁parent": 3162,
  "ón": 14331,
  "▁tastes": 9238,
  "▁Data": 2291,
  "▁VP": 13382,
  "▁himself": 1985,
  "lly": 9545,
  "▁Lancaster": 20042,
  "▁Thermal": 23621,
  "▁Sacred": 19938,
  "quir": 12810,
  "TN": 20000,
  "Detect": 29046,
  "▁Spiral": 27586,
  "▁Glo": 20070,
  "holder": 10224,
  "▁Royal": 3123,
  "▁Photographer": 21645,
  "▁region": 1499,
  "Go": 7951,
  "▁repercussions": 30093,
  "▁motorcycle": 7635,
  "▁Sales": 5230,
  "▁Date": 5936,
  "▁hot": 1328,
  "▁Genesis": 15258,
  "▁rambling": 31623,
  "owner": 11048,
  "▁Categories": 19962,
  "▁700": 9541,
  "▁imminent": 22194,
  "▁Linda": 11312,
  "icle": 11012,
  "▁crunchy": 21661,
  "▁Consortium": 24299,
  "▁resorts": 13424,
  "▁bonding": 17497,
  "▁Minor": 14437,
  "<0x43>": 70,
  "▁composition": 5326,
  "▁cooking": 2899,
  "propelled": 27310,
  "sky": 5888,
  "▁exhaustion": 25961,
  "▁facing": 3440,
  "Your": 13988,
  "▁righteous": 22921,
  "▁USB": 4294,
  "▁resist": 6550,
  "▁matching": 5528,
  "▁Charter": 14156,
  "▁Gold": 2493,
  "▁freedom": 3179,
  "▁PLA": 20898,
  "▁test": 937,
  "▁colour": 2457,
  "▁Debian": 30579,
  "182": 26957,
  "▁Cook": 4972,
  "▁props": 19565,
  "”),": 16704,
  "physio": 19568,
  "▁speak": 2020,
  "▁shipments": 19716,
  "fashion": 29914,
  "tri": 3507,
  "▁Catering": 25413,
  "kah": 21369,
  "▁grade": 2633,
  "▁regulatory": 5537,
  "▁executive": 3256,
  "▁jail": 8284,
  "▁combinations": 10350,
  "▁humour": 18846,
  "▁Disabled": 31793,
  "▁Prompt": 29105,
  "▁maximize": 7309,
  "9.00": 26301,
  "▁elasticity": 25881,
  "▁hearts": 6625,
  "▁rubbish": 14722,
  "▁decisive": 21069,
  "▁Oven": 23105,
  "▁Mickey": 20958,
  "▁standardized": 16531,
  "▁Dictionary": 20105,
  "▁rationale": 22661,
  "▁Planning": 6345,
  "<0x00>": 3,
  "▁arrangements": 5818,
  "▁funny": 4463,
  "image": 13859,
  "▁trenches": 29912,
  "▁clipart": 28792,
  "▁identity": 3433,
  "▁scans": 17521,
  "▁perseverance": 25386,
  "▁sobriety": 31229,
  "▁Christine": 16982,
  "▁horrific": 23738,
  "▁definitely": 1479,
  "▁opposing": 14888,
  "know": 15667,
  "▁performers": 12478,
  "▁Fitz": 21921,
  "▁boot": 4945,
  "tance": 13261,
  "employed": 22308,
  "▁Exclusive": 17203,
  "ARK": 25046,
  "▁refugee": 16311,
  "▁pain": 1399,
  "covered": 21647,
  "eel": 10096,
  "▁sprint": 14944,
  "STA": 17815,
  "eck": 9583,
  "Judging": 31466,
  "MU": 10684,
  "▁submit": 3081,
  "▁adjusted": 7978,
  "▁Zen": 11030,
  "▁lazy": 12105,
  ":14": 15986,
  "Maur": 26081,
  "▁Alison": 23053,
  "▁Cleaner": 19965,
  "BIN": 28126,
  "▁dye": 11197,
  "ст": 17739,
  "<0xA3>": 166,
  "▁Ginger": 19927,
  "▁gracious": 22962,
  "▁Sie": 10263,
  "▁permitted": 6609,
  "▁elections": 6601,
  "▁campsite": 18954,
  "▁Parade": 19620,
  "▁week": 596,
  "▁Hail": 27550,
  "▁foliage": 17403,
  "<extra_id_18>": 32081,
  "▁giant": 4265,
  "▁youthful": 18641,
  "▁Registered": 15995,
  "-2019": 17248,
  "▁birdie": 31646,
  "▁diagnosed": 8035,
  "▁peppermint": 28463,
  "▁Files": 18019,
  "226": 24197,
  "▁Rice": 11395,
  "▁valuable": 2640,
  "▁Bis": 14567,
  "▁Cody": 23983,
  "site": 3554,
  "▁spray": 4411,
  "▁hint": 8795,
  "▁Critics": 28013,
  "▁wade": 30612,
  "▁board": 1237,
  "▁variety": 1110,
  "▁liver": 7240,
  "smoking": 30595,
  "▁seismic": 25194,
  "▁frequencies": 15465,
  "▁tenure": 13758,
  "▁costumes": 12975,
  "▁mandate": 10816,
  "262": 28706,
  "▁scales": 13938,
  "▁itinerary": 15870,
  "▁goggles": 29382,
  "4.99": 28760,
  "<0x09>": 12,
  "wrap": 28295,
  "▁Kelsey": 31402,
  "bang": 22412,
  "▁Albania": 25048,
  "▁natural": 926,
  "▁documentaries": 25188,
  "▁mil": 15555,
  "Chartered": 24254,
  "▁Dean": 8351,
  "▁tried": 1629,
  "war": 4547,
  "ggie": 14109,
  "travel": 20139,
  "),": 467,
  "▁surge": 11991,
  "<0xEC>": 239,
  "▁PayPal": 11639,
  "uz": 7897,
  "▁dys": 15389,
  "▁forfeit": 25319,
  "▁celebrities": 13906,
  "▁102": 14143,
  "24%": 30401,
  "▁nights": 5655,
  "▁Whole": 12605,
  "5-6": 17297,
  "▁striker": 19330,
  "▁(1996)": 29547,
  "consolidating": 27723,
  "▁fear": 2578,
  "▁management": 820,
  "hut": 27320,
  "▁Twitter": 2649,
  "▁Irwin": 31481,
  "▁listed": 2012,
  "layoffs": 30056,
  "▁drama": 5535,
  "▁chemistry": 9399,
  "▁individually": 7711,
  "Bringing": 26779,
  "▁Broadcast": 26597,
  "LER": 22450,
  "▁School": 1057,
  "▁carousel": 30717,
  "▁Upstairs": 30939,
  "egg": 20390,
  "▁Kos": 18596,
  "Auth": 29889,
  "▁tanning": 28179,
  "ICO": 16454,
  "▁Straight": 19685,
  "▁Waiting": 24991,
  "▁landed": 10703,
  "▁Robert": 3004,
  "▁nourishing": 25274,
  "▁cargo": 9839,
  "traffic": 30642,
  "▁Tribunal": 24693,
  "▁prosperous": 22430,
  "▁draining": 24931,
  "Electoral": 29864,
  "SIDE": 20081,
  "▁Skull": 29379,
  "▁Sunshine": 19595,
  "▁hexagon": 29240,
  "▁Reverse": 24573,
  "▁slowdown": 26900,
  "OnePlus": 29522,
  "catalytic": 28021,
  "▁fetch": 17303,
  "▁$3,000": 29762,
  "▁lump": 13857,
  "TU": 10478,
  "▁refining": 22802,
  "=\"": 10665,
  "▁Y": 1724,
  "▁classrooms": 14461,
  "▁yellow": 3276,
  "▁Sale": 4745,
  "▁tame": 25392,
  "ROW": 20222,
  "▁measurement": 6408,
  "How": 6720,
  "▁ripple": 24828,
  "▁ditch": 17238,
  "<0xB1>": 180,
  "▁Hai": 13598,
  "▁Conditions": 10767,
  "▁1957": 19422,
  "▁trained": 3098,
  "▁acid": 3646,
  "CAC": 25728,
  "▁resurgence": 31129,
  "▁auf": 19076,
  "▁Vendor": 21789,
  "ер": 19614,
  "brief": 30283,
  "▁bullpen": 31508,
  "Western": 30680,
  "да": 25318,
  "▁revolve": 15826,
  "▁bells": 19953,
  "▁Flex": 13595,
  "▁stiff": 12291,
  "Honorary": 30590,
  "▁menu": 2256,
  "▁Private": 4926,
  "▁shortcomings": 25672,
  "Real": 21889,
  "▁dizzy": 28843,
  "▁MEDI": 25732,
  "▁liable": 8021,
  "▁clothes": 3570,
  "▁peek": 13826,
  "▁Wiki": 17868,
  "▁helped": 1831,
  "▁Boutique": 23715,
  "▁promptly": 9499,
  "▁Hello": 5930,
  "▁JFK": 31089,
  "off": 1687,
  "▁Put": 5598,
  "▁Rover": 15559,
  "▁footprint": 10877,
  "▁GCSE": 29081,
  "leigh": 15515,
  "▁horizontally": 24850,
  "▁burner": 15328,
  "▁D": 567,
  "▁ends": 3816,
  "▁merge": 14771,
  "▁VPN": 8184,
  "▁Director": 2224,
  "▁contender": 18835,
  "239": 27514,
  "▁copying": 18033,
  "▁gardens": 6440,
  "▁Sofia": 25867,
  "▁upstairs": 14965,
  "▁flaming": 29612,
  "▁reopen": 22824,
  "▁executives": 9196,
  "▁Eva": 19191,
  "▁relationship": 1497,
  "▁novels": 11174,
  "▁lightly": 9556,
  "▁layouts": 16818,
  "Upcoming": 31723,
  "▁aluminum": 5856,
  "▁cabin": 7527,
  "ESA": 22860,
  "▁Taylor": 5604,
  "Bar": 13308,
  "▁archetype": 31643,
  "Ph": 15382,
  "▁Vegan": 22696,
  "▁Automotive": 15292,
  "ски": 29775,
  "▁ridge": 14856,
  "▁flattering": 24837,
  "▁emblem": 26275,
  "▁declined": 9596,
  "▁pony": 20484,
  "▁southwest": 17670,
  "▁significance": 7828,
  "▁08": 8463,
  "AME": 22648,
  "▁pine": 9682,
  "elm": 23404,
  "▁detachable": 28965,
  "▁Dawson": 25322,
  "vali": 15865,
  "assessment": 29933,
  "▁plates": 6845,
  "▁solution": 1183,
  "▁Hidden": 19376,
  "▁millennials": 24618,
  "▁Hungry": 31859,
  "▁Bangkok": 16524,
  "▁Juan": 12450,
  "▁clothing": 3843,
  "made": 4602,
  "▁hiring": 5290,
  "▁Stamp": 12690,
  "▁counteract": 29052,
  "▁Brake": 20005,
  "▁feature": 1286,
  "▁configure": 11458,
  "▁harbor": 15371,
  "▁Walker": 9212,
  "▁Punch": 24420,
  "▁preserving": 14934,
  "▁Lumber": 29628,
  "▁Resolution": 12942,
  "▁berries": 14394,
  "▁Kavanaugh": 31384,
  "▁CHI": 22177,
  "▁Ladies": 16575,
  "▁Simon": 6289,
  "zzi": 16749,
  "<0x6D>": 112,
  "▁dangerous": 3503,
  "▁searched": 12786,
  "▁File": 6265,
  "▁VR": 10407,
  "▁activated": 10275,
  "▁Variation": 30172,
  "▁Easy": 4827,
  "OTA": 22804,
  "MB": 6555,
  "▁Hay": 9027,
  "▁Kind": 12409,
  "▁Herald": 21183,
  "▁invention": 5829,
  "<extra_id_55>": 32044,
  "n": 296,
  "▁punctuation": 28498,
  "▁shelving": 21431,
  "▁zodiac": 31022,
  "▁alloy": 11098,
  "▁willing": 3166,
  "<0xE8>": 235,
  "▁Activities": 16370,
  "tale": 21044,
  "▁lake": 4324,
  "▁Leg": 12871,
  "▁Cadillac": 23109,
  "▁strawberry": 18200,
  "▁hut": 17830,
  "▁flash": 4577,
  "▁headache": 13706,
  "▁Impress": 26442,
  "▁42": 4847,
  "▁64-": 21022,
  "▁printing": 3879,
  "instagram": 21619,
  "5°": 22140,
  "▁termination": 11920,
  "arra": 10661,
  "▁Riley": 20397,
  "▁Major": 7665,
  "uni": 8539,
  "phen": 14540,
  "▁peroxide": 29653,
  "▁2002": 6372,
  "▁Buddhist": 14207,
  "USA": 14634,
  "continue": 31453,
  "▁lying": 8036,
  "▁dreams": 4530,
  "▁fli": 19478,
  "▁party": 1028,
  "▁tree": 1921,
  "▁Blossom": 28225,
  "▁city": 741,
  "▁Supplier": 17213,
  "IFIED": 31153,
  "▁woo": 22459,
  "bearer": 28839,
  "▁prominently": 26635,
  "▁Week": 4554,
  "▁Reuters": 18746,
  "atory": 9723,
  "▁buckle": 18386,
  "▁FULL": 22072,
  "▁prescribed": 9379,
  "▁unofficial": 24815,
  "▁entitlement": 22677,
  "▁2012": 2362,
  "▁WATER": 29207,
  "▁guild": 23529,
  "329": 26897,
  "▁stationary": 19428,
  "click": 9284,
  "▁destroy": 6744,
  "▁Star": 2344,
  "▁Outlet": 22527,
  "▁pharmacies": 24291,
  "▁hourly": 17461,
  "▁appliances": 5785,
  "▁curry": 15556,
  "▁fenced": 22493,
  "▁Zurich": 25002,
  "▁shuttle": 11957,
  "▁Stevie": 30678,
  ":17": 17048,
  "▁shame": 8125,
  "WD": 11027,
  "▁Insta": 24600,
  "total": 24327,
  "▁judged": 16272,
  "▁specialization": 22660,
  "▁servo": 28362,
  "▁Windsor": 18142,
  "▁avert": 28218,
  "▁units": 2322,
  "▁rib": 13805,
  "▁Cynthia": 26080,
  "▁slope": 13179,
  "▁exam": 2861,
  "▁Jerusalem": 9695,
  "evi": 11112,
  "ATI": 21670,
  "▁ages": 3874,
  "7.7": 26982,
  "▁algae": 20155,
  "▁Avon": 22730,
  "Vol": 23127,
  "▁propeller": 29388,
  "▁Expense": 30704,
  "▁amplification": 28907,
  "stitch": 28018,
  "cado": 28070,
  "▁lull": 29508,
  "▁Emma": 11432,
  "▁HE": 8369,
  "▁investor": 7836,
  "▁notified": 9801,
  "▁COLOR": 31985,
  "▁graduate": 3681,
  "hibi": 16637,
  "▁check": 756,
  "▁Working": 5024,
  "▁shield": 8512,
  "mous": 14436,
  "POS": 25734,
  "▁sweetheart": 27487,
  "▁Horton": 28270,
  "wag": 20166,
  "▁trout": 18904,
  "▁888-6": 31283,
  "▁joint": 3349,
  "<extra_id_60>": 32039,
  "▁switch": 2795,
  "▁Malta": 17935,
  "▁proceed": 5789,
  "ZZ": 24770,
  "<0x44>": 71,
  "▁profoundly": 24888,
  "photo": 16979,
  "▁angst": 30894,
  "▁rainbow": 14501,
  "▁pointing": 10589,
  "▁discoveries": 18031,
  "▁Cad": 17756,
  "yer": 8938,
  "▁Covenant": 24182,
  "ply": 15284,
  "▁swimmer": 20653,
  "uk": 1799,
  "▁playful": 15228,
  "▁vampire": 21033,
  "ple": 5640,
  "▁sword": 10215,
  "plus": 10369,
  "▁premium": 3083,
  "▁ZIP": 21133,
  "nitro": 25350,
  "▁Hi": 2038,
  "cast": 5208,
  "▁plots": 18469,
  "wick": 7601,
  "▁crowds": 14077,
  "▁countryside": 11297,
  "<0x17>": 26,
  "tolerance": 22871,
  "▁Jessie": 28617,
  "▁expectations": 3246,
  "▁snake": 11237,
  "▁situations": 3336,
  "▁Noble": 18158,
  "ulate": 12184,
  "▁spark": 8250,
  "▁Bologna": 31786,
  "▁Rev": 6151,
  "▁Chic": 19506,
  "▁Lord": 2233,
  "▁needing": 9616,
  "kar": 4076,
  "▁loving": 4912,
  "Rock": 19706,
  "▁Kid": 11119,
  "TIG": 29445,
  "▁Disclosure": 23411,
  "▁interference": 13645,
  "▁pantry": 15313,
  "▁Modern": 4207,
  "▁aircraft": 4545,
  "interest": 13917,
  "...": 500,
  "oxi": 10134,
  "▁falling": 5027,
  "bib": 21835,
  "▁changes": 1030,
  "▁Thames": 23283,
  "share": 9826,
  "▁Nigel": 25419,
  "▁VMware": 20881,
  "▁arranging": 16919,
  "UX": 13117,
  "▁Responsibility": 26146,
  "▁priority": 4065,
  "▁Bathtub": 28134,
  "▁thighs": 21077,
  "grid": 20158,
  "▁advisable": 15694,
  "creation": 28273,
  "▁Bern": 12580,
  "▁Speak": 18112,
  "▁Alba": 22523,
  "▁magnificent": 8077,
  "▁fluctuate": 25115,
  "▁Brett": 18240,
  "▁Gorgeous": 19132,
  "▁Airport": 4297,
  "▁Tu": 4901,
  "▁ACCESS": 28144,
  "▁congestion": 18900,
  "▁Staffordshire": 31612,
  "▁Especially": 9220,
  "▁homage": 22023,
  "onomy": 21693,
  "▁:-)": 28399,
  "▁Dub": 20241,
  "▁invited": 3885,
  "▁Dark": 5897,
  "▁Looks": 11127,
  "integ": 27940,
  "▁Scheme": 16119,
  "▁depends": 3995,
  ".00": 4561,
  "euer": 31307,
  "▁celeb": 26550,
  "▁artist": 2245,
  "<0x56>": 89,
  "3.": 6516,
  "▁erroneous": 30314,
  "▁locations": 2524,
  "original": 24805,
  "▁Darwin": 19591,
  "<extra_id_83>": 32016,
  "▁http": 2123,
  "▁caretaker": 28435,
  "amino": 21962,
  "▁Error": 13489,
  "▁lumen": 25143,
  "▁Sha": 4089,
  "▁Journal": 3071,
  "erio": 23393,
  "Sgt": 27527,
  "194": 27163,
  "▁Genealogy": 31920,
  "dros": 31705,
  "▁consolation": 30156,
  "▁startup": 8139,
  "<0xF0>": 243,
  "▁kidding": 23287,
  "▁Delaware": 12872,
  "Atlantic": 29546,
  "▁tinker": 28177,
  "▁investments": 5260,
  "▁fiduciary": 28676,
  "▁vital": 3223,
  "▁SVG": 31355,
  "por": 14309,
  "nose": 22707,
  "wear": 6298,
  "▁desired": 3650,
  "meal": 22997,
  "▁Ashley": 12785,
  "▁Attend": 20844,
  "▁rupture": 29458,
  "▁Influence": 22062,
  "▁circulate": 26177,
  "▁golfers": 24587,
  "▁hour": 1520,
  "▁hygiene": 13339,
  "▁vocabulary": 12769,
  "▁Exactly": 20002,
  "▁Robotics": 27674,
  "▁bidder": 23587,
  "▁emerge": 9121,
  "▁eventually": 2752,
  "▁pit": 5127,
  "hereby": 20089,
  "▁(£": 23451,
  "▁Rider": 18549,
  "▁broadcaster": 22141,
  "▁handmade": 9899,
  "▁wow": 12647,
  "▁waterfalls": 21329,
  "92": 5669,
  "▁handy": 5644,
  "ISA": 14369,
  "▁reputable": 11481,
  "▁vehicle": 1410,
  "▁concepts": 4360,
  "▁Hayden": 28748,
  "▁nineteenth": 23381,
  "▁raisins": 28724,
  "▁privileged": 17389,
  "▁kept": 2100,
  "125": 19891,
  "▁fostering": 22216,
  "▁skirt": 8046,
  "▁roam": 23593,
  "▁publication": 4631,
  "▁mildew": 25256,
  "▁Homemade": 28726,
  "▁scared": 10739,
  "maintenance": 31042,
  "▁bar": 1389,
  "▁proficient": 19100,
  "bustling": 22198,
  "▁workouts": 14231,
  "sur": 8092,
  "▁thrilling": 17110,
  "▁Kas": 13541,
  "now": 6425,
  "▁tissues": 11088,
  "▁peas": 17283,
  "▁Pharmaceutical": 18069,
  "240": 20505,
  "▁alphabet": 19593,
  "▁amazingly": 17767,
  "▁Tetra": 31853,
  "▁dipping": 23232,
  "▁GPA": 22927,
  "▁Common": 6967,
  "▁Tour": 4606,
  "rick": 5469,
  "▁producers": 7026,
  "▁blackjack": 14333,
  "▁variation": 8256,
  "▁positively": 11874,
  "▁fluoride": 26953,
  "▁Rebel": 18263,
  "▁Funny": 18792,
  "▁Optimization": 21455,
  "▁fashion": 2306,
  "▁gl": 13068,
  "▁geography": 16825,
  "▁Mercury": 16150,
  "kota": 29965,
  "▁What": 496,
  "▁Jorge": 27075,
  "▁upward": 14873,
  "istori": 31547,
  "▁Techni": 29411,
  "▁Richardson": 20249,
  "▁25%": 9672,
  "lé": 17217,
  "kWh": 26369,
  "▁bouquet": 13948,
  "▁primer": 15449,
  "▁template": 3370,
  "▁marginal": 14928,
  "▁identifying": 6984,
  "▁sparkling": 14609,
  "▁footage": 8644,
  "▁circumvent": 30133,
  "▁reason": 1007,
  "▁graceful": 19790,
  "41": 4666,
  "▁Leisure": 24243,
  "llywood": 25620,
  "▁stirring": 12480,
  "▁Min": 5369,
  "▁Found": 15453,
  "▁dra": 22599,
  "rail": 9054,
  "▁pillars": 21521,
  "▁Manila": 20318,
  "▁vicinity": 18340,
  "sqft": 29144,
  "▁overcome": 5568,
  "с": 7336,
  "▁1997": 5874,
  "▁seaweed": 28741,
  "▁suspicion": 16462,
  "▁repel": 25456,
  "▁(20": 14246,
  "▁Nai": 21754,
  "610": 23654,
  "▁logs": 12693,
  "▁alternatively": 23943,
  "Card": 22569,
  "▁French": 1961,
  "▁serum": 13190,
  "hav": 15092,
  "▁dependency": 20114,
  "▁nurturing": 19600,
  "INS": 18132,
  "▁1920": 10598,
  "▁Violence": 24257,
  "▁pathways": 13235,
  "DE": 7113,
  "minus": 24796,
  "cott": 10344,
  "▁station": 2264,
  "▁Kar": 5653,
  "▁Julie": 9417,
  "▁convicted": 14657,
  "▁samples": 4212,
  "▁hypothesis": 15873,
  "FORT": 29751,
  "▁Orbit": 27508,
  "▁passport": 10184,
  "udy": 27124,
  "bou": 13726,
  "▁Religion": 18775,
  "▁Butter": 12607,
  "liquid": 25076,
  "cien": 31887,
  "▁refinery": 30903,
  "▁popping": 17750,
  "Hz": 17280,
  "▁1906": 27406,
  "▁feasible": 12953,
  "Suite": 29387,
  "▁stripes": 17256,
  "▁coaching": 5456,
  "▁Nokia": 13668,
  "▁strings": 11771,
  "▁necro": 27558,
  "▁Draft": 14829,
  "▁weekends": 9724,
  "▁offerings": 7738,
  "▁informative": 8269,
  "angel": 22874,
  "TK": 23070,
  "Cannot": 27511,
  "EAR": 11726,
  "▁84": 10348,
  "▁insulation": 9304,
  "Although": 30202,
  "7-1": 23018,
  "▁creepy": 21743,
  "▁Frost": 17896,
  "▁Sheep": 27013,
  "▁recital": 27520,
  "мо": 24568,
  "▁karma": 30240,
  "▁finger": 6053,
  "▁Console": 21013,
  "▁roasting": 23413,
  "Shirt": 24803,
  "▁crashing": 21575,
  "▁Expo": 12536,
  "><": 25950,
  "▁badge": 9657,
  "eter": 12595,
  "▁resulting": 3649,
  "approval": 29110,
  "Suitable": 19260,
  "▁comprehend": 13756,
  "▁use": 372,
  "▁Arlington": 19156,
  "▁agreement": 2232,
  "▁thirst": 22637,
  "▁speaker": 4660,
  "▁tracing": 24663,
  "▁cries": 27137,
  "stasis": 22832,
  "▁lodging": 17630,
  "▁parenting": 13518,
  "▁infestation": 22027,
  "▁spicy": 10998,
  "▁watching": 2599,
  "▁infants": 16195,
  "▁another": 556,
  "slotted": 31028,
  "ega": 10417,
  "▁chopping": 28602,
  "▁reply": 5612,
  "▁sock": 22738,
  "cushioned": 31385,
  "▁charismatic": 27853,
  "ACT": 14052,
  "▁dubbed": 19628,
  "▁splendid": 19310,
  "▁Item": 13417,
  "▁pathology": 24193,
  "▁those": 446,
  "▁Supply": 10641,
  "▁barbecue": 14787,
  "▁History": 3857,
  "▁lay": 4139,
  "▁Keeping": 12322,
  "▁stamp": 7422,
  "▁Provider": 11053,
  "minded": 9018,
  "rnal": 27509,
  "going": 8302,
  "▁cook": 2959,
  "▁Triumph": 27554,
  "▁anytime": 7109,
  "166": 24042,
  "▁babies": 6607,
  "▁Qatar": 15599,
  "▁compile": 17113,
  "Considering": 15718,
  "▁window": 1710,
  "smith": 10695,
  "▁Knock": 27180,
  "▁simplest": 13727,
  "regulating": 19445,
  "▁upcoming": 3408,
  "▁Lead": 8536,
  "▁thin": 3878,
  "Thank": 12984,
  "▁supervise": 24220,
  "FREE": 29702,
  "▁MRI": 17006,
  "▁civilians": 17706,
  "▁coordinate": 11244,
  "Russia": 23366,
  "▁shrinking": 25850,
  "▁Cinderella": 29894,
  "lation": 8061,
  "▁frenzy": 29823,
  "reputed": 23213,
  "▁feminine": 16529,
  "▁ring": 2926,
  "▁Nominat": 30659,
  "▁Entrance": 24524,
  "400": 5643,
  "▁frightened": 27459,
  "▁deformation": 29436,
  "▁challenges": 1996,
  "char": 11411,
  "this": 6376,
  "▁assert": 16369,
  "▁cosy": 19441,
  "▁Ronald": 14612,
  "▁Hours": 14281,
  "▁Books": 6869,
  "vac": 11715,
  "▁Visual": 8091,
  "▁Smartphone": 21034,
  "▁machinery": 8308,
  "▁SUB": 21917,
  "yang": 13193,
  "▁The": 281,
  "7,500": 28090,
  "Combining": 23504,
  "▁Chairs": 18455,
  "▁Sitting": 22752,
  "▁reporters": 13503,
  "▁future": 726,
  "functional": 18123,
  "▁telling": 3779,
  "▁Phase": 11131,
  "▁Guarantee": 17606,
  "▁Declaration": 20936,
  "▁harmonious": 25774,
  "▁figures": 4017,
  "248": 26042,
  "▁minor": 3667,
  "▁anthropology": 28979,
  "▁giving": 1323,
  "connected": 22389,
  "▁Cycl": 20115,
  "▁complaints": 7545,
  "▁force": 1974,
  "▁Professor": 4244,
  "nous": 19338,
  "▁Salon": 17041,
  "▁Roberts": 14823,
  "▁photographer": 6078,
  "▁Attach": 20910,
  "▁messenger": 20053,
  "▁immersive": 19500,
  "▁Mari": 11196,
  "▁dampen": 27771,
  "▁consultant": 6998,
  "▁Kawasaki": 31145,
  "▁5.": 3595,
  "▁Barrel": 24895,
  "▁Whitney": 23564,
  "UH": 26351,
  "▁workflow": 8996,
  "▁tremendously": 21954,
  "▁ma": 3326,
  "▁buddies": 20729,
  "MED": 23810,
  "unveiling": 30186,
  "▁slash": 18190,
  "organization": 30331,
  "▁restoration": 6068,
  "▁usually": 1034,
  "▁youth": 3260,
  "▁welfare": 8856,
  "▁Yet": 3714,
  "▁Lost": 12813,
  "clip": 25387,
  "▁»": 6575,
  "▁Grinding": 13374,
  "Extensive": 29703,
  "Safe": 22078,
  "▁disabled": 7559,
  ".95": 16713,
  "▁delivers": 6094,
  "lau": 11214,
  "Monetary": 26682,
  "▁anyone": 1173,
  "▁forthcoming": 15126,
  "▁wherever": 6950,
  "▁Warehouse": 21553,
  "▁biases": 28125,
  "▁trauma": 8490,
  "▁expression": 3436,
  "rivet": 21419,
  "▁1902": 29195,
  "field": 2150,
  "▁UPS": 15688,
  "▁skepticism": 30170,
  "▁Examine": 21465,
  "▁alter": 7381,
  "▁notwithstanding": 27604,
  "▁incomplete": 14012,
  "anton": 26525,
  "▁emailed": 17615,
  "▁coefficient": 18992,
  "DU": 9696,
  "operator": 31963,
  "▁bipolar": 26129,
  "▁boat": 2712,
  "▁terminals": 17966,
  "▁uploaded": 9313,
  "▁biomass": 22652,
  "▁altar": 19564,
  "▁Rare": 18518,
  "Download": 23742,
  "▁semester": 7643,
  "▁identifier": 17105,
  "▁Bharat": 25626,
  "▁protected": 3394,
  "osity": 18342,
  "▁hardest": 12506,
  "placement": 28333,
  "para": 11195,
  "▁linguistic": 17950,
  "▁George": 2810,
  "▁aboard": 13465,
  "▁Known": 18040,
  "▁detention": 18414,
  "▁Spoke": 28445,
  "profile": 15821,
  "▁exciting": 2340,
  "▁guise": 31044,
  "▁spokesman": 13160,
  "bearing": 21927,
  "▁neighbours": 17735,
  "handcrafted": 19654,
  "▁Mei": 17235,
  "▁Sew": 16295,
  "▁overwhelmed": 12049,
  "▁150": 4219,
  "▁poultry": 19388,
  "▁function": 1504,
  "▁sorts": 6796,
  "mental": 19193,
  "▁Diagram": 13749,
  "را": 25848,
  "boy": 9356,
  "▁libraries": 7968,
  "▁emulsion": 31403,
  "cite": 13113,
  "▁fastening": 26375,
  "▁Sketch": 20933,
  "▁Printing": 18643,
  "▁crumble": 26030,
  "▁scarce": 21697,
  "▁Respondent": 20879,
  "Out": 13707,
  "▁Cabinet": 10111,
  "▁pleasurable": 29768,
  "▁Katy": 24208,
  "▁posterior": 25080,
  "EGA": 26147,
  "▁variance": 19898,
  "7-4": 25056,
  "Open": 19849,
  "phony": 21936,
  "Gra": 17871,
  "▁Ethernet": 15337,
  "▁Lap": 21786,
  "▁Nav": 15985,
  "▁capitalize": 22224,
  "▁coins": 8483,
  "▁firmware": 13865,
  "▁parcel": 11862,
  "▁Hydraulic": 25324,
  "▁McCarthy": 22905,
  "draw": 15724,
  "▁Yoga": 8167,
  "▁seventh": 11364,
  "▁Reiki": 23485,
  "▁Beijing": 10180,
  "▁IBM": 7567,
  "grabbing": 19078,
  "▁motion": 3121,
  "▁civilization": 14047,
  "ally": 1752,
  "▁splice": 31955,
  "UK": 12370,
  "▁hostility": 30301,
  "▁tripod": 21638,
  "388": 29606,
  "OPS": 25341,
  "northeastern": 29899,
  "▁inaccurate": 19470,
  "▁jet": 6719,
  "▁unions": 13883,
  "▁strands": 21422,
  "▁Well": 1516,
  "▁2014.": 4771,
  "myriad": 14918,
  "▁unusual": 5411,
  "asana": 30541,
  "370": 20796,
  "spawned": 30585,
  "distilled": 26972,
  "RO": 5903,
  "Har": 13066,
  "strike": 28174,
  "just": 6847,
  "▁forgiveness": 15746,
  "▁violent": 8586,
  "▁sul": 18216,
  "▁Basin": 18080,
  "echoes": 27895,
  "Miss": 22583,
  "▁marvelous": 20230,
  "▁Barbados": 28395,
  "▁alone": 1829,
  "▁Sears": 22442,
  "9-4": 28852,
  "Delete": 21214,
  "▁Rangers": 17109,
  "▁Facebook": 1535,
  "▁heroin": 16319,
  "according": 30802,
  "▁waive": 25614,
  "▁illusion": 13843,
  "▁carpet": 3972,
  "▁Ottoman": 22360,
  "▁condition": 1610,
  "▁sludge": 29364,
  "CR": 7825,
  "▁Ortiz": 31950,
  "▁trapped": 13084,
  "▁inserted": 12857,
  "▁deprivation": 27002,
  "▁earn": 3035,
  "▁routes": 7281,
  "▁accompanie": 26947,
  "Glu": 30408,
  "▁impurities": 26726,
  "▁sniper": 30792,
  "▁Subaru": 21767,
  "▁camel": 22063,
  "▁Hanoi": 26637,
  "▁fourteen": 19664,
  "▁Wil": 8656,
  "▁Telescope": 31491,
  "activation": 29545,
  "/30/": 30222,
  "▁whisky": 24058,
  "▁Tha": 13862,
  "▁Currency": 24699,
  "▁completion": 4756,
  "▁verdict": 18026,
  "▁Morning": 10512,
  "▁reminded": 8482,
  "▁rabbi": 27698,
  "▁Moldova": 30252,
  "▁650": 19554,
  "▁Indonesia": 8442,
  "▁commerce": 13506,
  "▁Nations": 7188,
  "▁shortened": 25133,
  "▁Stem": 24861,
  "using": 8305,
  "▁Sox": 18971,
  "▁cyst": 26238,
  "▁Event": 7009,
  "▁OEM": 11851,
  "▁Cav": 17533,
  "▁Clerk": 19444,
  "▁atomic": 19771,
  "▁Representation": 30896,
  "j": 1122,
  "▁equipped": 3513,
  "▁fibers": 14299,
  "▁Flint": 23528,
  "▁Jasmine": 28068,
  "<extra_id_69>": 32030,
  "/07/": 29868,
  "▁claims": 2444,
  "▁Implant": 27843,
  "nian": 16055,
  "▁Grade": 8299,
  "▁plow": 25141,
  "German": 21480,
  "mechanical": 28990,
  "▁scholars": 9764,
  "<0xD4>": 215,
  "▁townhome": 29056,
  "▁believed": 4186,
  "laid": 23812,
  "▁Wakefield": 29958,
  "▁digit": 12216,
  "▁trek": 13283,
  "▁Tin": 8242,
  "▁bless": 13989,
  "▁Pin": 6466,
  "▁everlasting": 27709,
  "-80": 18140,
  "▁Write": 8904,
  "▁Maps": 14194,
  "▁NSF": 28011,
  "gator": 21180,
  "▁anatomical": 29355,
  "▁limb": 17056,
  "▁groom": 13897,
  "▁Jr": 5935,
  "SP": 4305,
  "▁fearful": 24495,
  "▁ar": 12577,
  "Exodus": 28234,
  "▁habitat": 8161,
  "▁Hiro": 30953,
  "▁Boone": 28028,
  "▁aromatic": 19483,
  "-40": 12180,
  "▁2008,": 9406,
  "▁metro": 12131,
  "▁deviation": 18405,
  "▁statistical": 9582,
  "pedia": 27501,
  "▁SD": 6877,
  "linda": 22388,
  "einen": 28829,
  "▁correspondent": 23255,
  "▁Columbia": 5680,
  "▁teas": 15412,
  "▁suit": 2767,
  "▁burnt": 18415,
  "more": 3744,
  "▁tenancy": 28161,
  "▁reveals": 7958,
  "▁vot": 31088,
  "▁particulate": 28686,
  "▁enhanced": 5611,
  "▁subside": 27304,
  "▁designers": 4798,
  "▁lease": 4878,
  "▁syndrome": 8940,
  "Biblio": 28436,
  "▁shelves": 8380,
  "▁Creation": 16754,
  "▁plumber": 13920,
  "▁divers": 22565,
  "▁flat": 2043,
  "▁Trace": 18576,
  "▁recommendation": 7322,
  "▁01": 5163,
  "▁federal": 2250,
  "▁automation": 7520,
  "▁GEO": 27702,
  "▁Pizza": 13542,
  "mul": 13922,
  "▁exists": 5336,
  "blood": 21887,
  "▁blank": 7807,
  "honed": 28963,
  "<extra_id_70>": 32029,
  "▁LTE": 21538,
  "▁existing": 1640,
  "▁$400": 19979,
  "780": 21884,
  "▁homeowner": 11936,
  "▁Zinc": 26116,
  "▁forum": 4487,
  "▁above": 787,
  "▁Moose": 29882,
  "▁Buckeye": 30420,
  "▁Uzbekistan": 30865,
  "▁pathetic": 30116,
  "▁stitching": 18558,
  "0°": 13319,
  "▁expelled": 30450,
  "▁Bruno": 24622,
  "▁tutor": 15399,
  "▁25": 1235,
  "▁Eucharist": 28667,
  "▁extra": 1106,
  "▁tendencies": 24854,
  "▁grandeur": 30682,
  "▁aristocrat": 31483,
  "▁Connie": 28925,
  "▁YES": 18890,
  "▁Beat": 10246,
  "▁metropolitan": 18384,
  "ed": 318,
  "▁dripping": 25885,
  "▁Approach": 17842,
  "▁clearly": 2437,
  "▁composed": 6952,
  "▁investors": 3165,
  "▁1970": 6131,
  "▁B": 540,
  "▁created": 960,
  "▁Length": 15620,
  "▁impede": 27596,
  "▁arrest": 6926,
  "2,500": 18296,
  "▁Messenger": 19893,
  "▁Enviro": 30532,
  "▁dé": 23982,
  "▁Oh": 2901,
  "could": 27044,
  "▁Frog": 24466,
  "▁bumper": 15359,
  "▁Communist": 20435,
  "▁2015,": 5685,
  "▁educating": 16658,
  "dim": 19866,
  "▁beauty": 2199,
  "fly": 12924,
  "▁30,000": 18594,
  "▁WO": 19901,
  "▁Ubuntu": 18127,
  "▁Dam": 9159,
  "▁nutritional": 10247,
  "▁Whisk": 22539,
  "▁£3": 15823,
  "▁PDF": 4079,
  "▁1,200": 24591,
  "▁twitch": 31225,
  "rber": 18055,
  "resistant": 12622,
  "ive": 1562,
  "▁planet": 4156,
  "▁Dynamics": 18062,
  "▁TJ": 24987,
  "▁honey": 5917,
  "▁Restore": 25780,
  "▁alley": 17802,
  "▁Reference": 10445,
  "▁varsity": 26585,
  "▁Garbage": 31181,
  "▁pretty": 1068,
  "▁20-": 12349,
  "WAY": 14862,
  "▁wounds": 15367,
  "▁voluntary": 12074,
  "▁Far": 5172,
  "▁Corporate": 8549,
  "▁Nut": 13783,
  "▁frequently": 3233,
  "▁actuator": 26818,
  "raise": 20315,
  "▁silicone": 15849,
  "▁remember": 1341,
  "▁servicing": 13409,
  "4.0": 26952,
  "▁experimenting": 18778,
  "▁debugging": 27934,
  "▁countries": 1295,
  "▁unhappy": 16719,
  "▁Role": 17028,
  "▁gratuit": 25206,
  "▁Deliver": 18833,
  "▁geopolitical": 31222,
  "▁suburb": 19534,
  "grad": 8951,
  "elia": 15748,
  "perform": 28189,
  "Diff": 26247,
  "▁multiplication": 28919,
  "▁grazing": 24992,
  "▁nugget": 27532,
  "▁prior": 1690,
  "▁statute": 11877,
  "▁maple": 13624,
  "ca": 1981,
  "bog": 19996,
  "▁fan": 2037,
  "RY": 10023,
  "creeping": 31303,
  "CCC": 23075,
  "▁Historical": 12016,
  "▁dead": 2706,
  "▁1971": 13999,
  "▁crashes": 15446,
  "▁CST": 26962,
  "ا": 5171,
  "▁Gathering": 26814,
  "▁audible": 28687,
  "-26": 15593,
  "creating": 31940,
  "▁timing": 6352,
  "drug": 25668,
  "hur": 13191,
  "▁READ": 19734,
  "DIS": 16743,
  "▁Passenger": 21520,
  "ability": 2495,
  "▁Polish": 9450,
  "▁representation": 5646,
  "▁India": 1384,
  "▁why": 640,
  "▁fancie": 30383,
  "ural": 8270,
  "▁cooperation": 5816,
  "▁10:4": 30629,
  "neuronal": 30613,
  "▁fulfill": 6823,
  "▁characterized": 10805,
  "q": 2015,
  "▁eventual": 17915,
  "▁registering": 15135,
  "8": 1452,
  "▁Lol": 19320,
  "▁Bat": 8528,
  "▁pendant": 12002,
  "▁project": 608,
  "▁Tra": 5954,
  "▁misconduct": 22651,
  "▁initiatives": 5264,
  "▁char": 13297,
  "CERT": 25074,
  "▁console": 6523,
  "▁rebel": 13996,
  "▁16,": 9371,
  "▁convergence": 25561,
  "▁Slam": 26722,
  "News": 18288,
  "▁foreigners": 21503,
  "-3": 5521,
  "▁extinct": 27625,
  "▁biography": 18205,
  "▁Native": 8815,
  "▁Processing": 12641,
  "▁Por": 17495,
  "▁ended": 2630,
  "▁Upgrade": 17343,
  "refusing": 20850,
  "▁Br": 9172,
  "▁saute": 24018,
  "▁shape": 1924,
  "box": 3634,
  "▁imperial": 19498,
  "▁Internet": 1680,
  "▁zinc": 15408,
  "▁strawberries": 17774,
  "▁Either": 9618,
  "Biomedical": 29080,
  "▁friction": 14825,
  "▁reproduce": 14954,
  "▁disparate": 27563,
  "▁motivation": 6371,
  "▁gambling": 6147,
  "▁advanced": 1968,
  "▁Vincent": 14452,
  "XY": 23452,
  "▁polymer": 10513,
  "▁Bird": 9755,
  "▁thriving": 13853,
  "predicting": 24997,
  "crumbling": 31607,
  "▁Ge": 4948,
  "▁79": 12730,
  "RV": 17250,
  "▁UNICEF": 31801,
  "+": 1543,
  "▁main": 869,
  "7.9": 26458,
  "▁Time": 2227,
  "WORK": 16071,
  "▁Kitchen": 3876,
  "▁Prescott": 30317,
  "revamped": 30129,
  "▁pesticide": 27513,
  "WOOD": 24867,
  "▁IoT": 13042,
  "▁Brasil": 31641,
  "▁Devil": 13458,
  "▁Serve": 10517,
  "▁co": 1005,
  "▁Outside": 11847,
  "▁arc": 10648,
  "▁questionable": 20200,
  "▁111": 19074,
  "▁fans": 2234,
  "▁Gulf": 8334,
  "▁stays": 8829,
  "▁relocation": 15100,
  "▁storms": 15368,
  "▁opportunity": 997,
  "▁2016,": 5328,
  "▁STEP": 25558,
  "▁canopy": 14640,
  "▁$7": 8086,
  "▁Optimis": 29183,
  "▁knowledge": 1039,
  "▁interrogation": 30862,
  "▁Goldman": 22854,
  "exposing": 20448,
  "▁corruption": 9361,
  "generated": 25585,
  "▁Oxford": 7011,
  "▁unrealistic": 25205,
  "▁control": 716,
  "▁stability": 5126,
  "▁went": 884,
  "▁dental": 3464,
  "▁testing": 2059,
  "▁breakthrough": 14081,
  "▁toward": 2353,
  "▁CB": 9439,
  "KEY": 23010,
  "▁crocodile": 29010,
  "▁noodle": 27921,
  "▁Lucy": 15571,
  "▁YOU": 4098,
  "▁Hardware": 17141,
  "▁acclaimed": 13551,
  "ejected": 30696,
  "▁MM": 12819,
  "▁IELTS": 30795,
  "▁Dentist": 28116,
  "▁diets": 16811,
  "does": 24283,
  "IPS": 21054,
  "▁dart": 21485,
  "requiring": 7074,
  "▁diabetic": 17434,
  "0.3": 23642,
  "online": 12051,
  "▁Bought": 29088,
  "world": 5614,
  "▁fare": 8858,
  "▁Yemen": 19282,
  "▁utilize": 4157,
  "▁washes": 26842,
  "▁destructive": 16162,
  "▁Berkshire": 24264,
  "▁Moines": 28834,
  "29": 5065,
  "pivotal": 20376,
  "▁whistleblower": 31321,
  "NX": 23991,
  "▁excite": 26009,
  "psy": 14429,
  "2+": 21988,
  "▁Cal": 4556,
  "▁gingerbread": 31199,
  "ruti": 29324,
  "▁Breaking": 23601,
  "▁measurements": 7153,
  "▁hummus": 30144,
  "without": 17044,
  "big": 11607,
  "▁Parts": 10761,
  "3": 758,
  "▁roadmap": 22067,
  "▁Felix": 24178,
  "▁continues": 2494,
  "▁his": 338,
  "meet": 24773,
  "▁projections": 17700,
  "augh": 14703,
  "Get": 14023,
  "chromatic": 27336,
  "▁Author": 6020,
  "▁hepatitis": 26918,
  "response": 30110,
  "▁fast": 1230,
  "▁repeated": 8051,
  "▁Bristol": 12199,
  "jee": 20386,
  "▁Bor": 5901,
  "▁Libraries": 21578,
  "▁Audrey": 27126,
  "490": 27392,
  "nagar": 20361,
  "▁(2004)": 23001,
  "▁cannabinoid": 29482,
  "▁trimester": 30993,
  "▁$3": 3786,
  "▁Alert": 16472,
  "▁Shoe": 21336,
  "▁Syn": 10930,
  "▁2015)": 20986,
  "▁dab": 27243,
  "▁AGAIN": 30955,
  "PE": 7228,
  "▁PRODUCTS": 30125,
  "exclusive": 25287,
  "tapped": 19836,
  "▁substantially": 9753,
  "ication": 16671,
  "▁Bartlett": 30668,
  "▁dryer": 9275,
  "13": 3657,
  "▁Poker": 10199,
  "▁publish": 6115,
  "▁Indie": 20198,
  "▁killed": 3474,
  "▁Volunteers": 20610,
  "▁Rita": 24321,
  "▁Gy": 14706,
  "VI": 8117,
  "▁Products": 5087,
  "▁folks": 3796,
  "attributable": 26437,
  "invariably": 26674,
  "▁earned": 3616,
  "▁Ericsson": 30688,
  "▁conferr": 28085,
  "▁Stuff": 19026,
  "wordpress": 23027,
  "▁Border": 12413,
  "▁Mor": 3830,
  "▁suites": 12986,
  "▁Brain": 10133,
  "▁Fre": 9317,
  "lateral": 17138,
  "▁tension": 5620,
  "▁Start": 3577,
  "▁0.7": 21569,
  "▁888-4": 24407,
  "▁Service": 1427,
  "▁Finger": 19676,
  "ethanol": 16010,
  "jpeg": 21176,
  "▁serious": 1872,
  "▁Evaluation": 16436,
  "▁abstract": 7345,
  "▁sleeping": 6117,
  "▁near": 1033,
  "▁filtering": 16783,
  "▁Diane": 18923,
  "▁Reason": 14772,
  "▁Jeremy": 13295,
  "▁DVR": 28956,
  "▁Apex": 27649,
  "audio": 26211,
  "▁Chandelier": 29480,
  "▁right": 441,
  "▁assistant": 4627,
  "▁Campaign": 12179,
  "▁operating": 2119,
  "▁Shield": 14179,
  "▁freelance": 9421,
  "▁Island": 2352,
  "▁dressed": 8859,
  "license": 27268,
  "▁theatrical": 19909,
  "▁Frank": 4794,
  "<0xB8>": 187,
  "▁clinician": 29587,
  "▁boycott": 25362,
  "▁ozone": 25643,
  "▁Lily": 18823,
  "▁fat": 2572,
  "▁east": 3912,
  "▁Mont": 7044,
  "▁Chance": 10121,
  "93": 6274,
  "▁rates": 1593,
  "▁settings": 2851,
  "▁fuel": 2454,
  "▁midfield": 26711,
  "/11/": 27993,
  "▁silent": 8928,
  "▁guilty": 7299,
  "▁related": 1161,
  "single": 26176,
  "▁temporary": 4897,
  "entra": 25720,
  "picture": 19942,
  "▁gives": 1372,
  "▁Issue": 13674,
  "fighting": 23951,
  "▁Layer": 16014,
  "Lady": 30227,
  "▁occupancy": 21247,
  "▁DA": 8923,
  "▁Indigenous": 16482,
  "▁payments": 3225,
  "ground": 7882,
  "john": 19917,
  "▁sterile": 25991,
  "▁later": 875,
  "<extra_id_68>": 32031,
  "▁Lip": 11980,
  "▁Automatic": 11860,
  "▁October": 1524,
  "▁defence": 8920,
  "▁Oriental": 22582,
  "▁virtually": 5965,
  "▁bark": 14059,
  "▁wave": 4446,
  "▁Cit": 18884,
  "▁Immediately": 21627,
  "▁groove": 13098,
  "hose": 6807,
  "TA": 5111,
  "▁vegan": 8206,
  "▁Open": 2066,
  "▁folders": 15074,
  "▁6.": 4503,
  "hall": 11571,
  "▁Let": 1381,
  "▁stands": 3601,
  "▁Scandinavian": 24244,
  "FORM": 23282,
  "▁Labs": 17745,
  "▁Such": 3713,
  "NESS": 26660,
  "▁Counsel": 16083,
  "▁54": 7427,
  "▁#5": 21568,
  "▁archipelago": 30881,
  "▁2006": 4382,
  "▁musician": 10509,
  "▁76": 10161,
  "raising": 24207,
  "▁structures": 4118,
  "astic": 15569,
  "▁Scholarship": 12637,
  "▁decorations": 10178,
  "▁Criteria": 31780,
  "▁infographic": 20815,
  "▁engage": 3176,
  "▁lettuce": 15004,
  "▁painting": 3023,
  "▁Slovenia": 21191,
  "▁society": 2187,
  "▁Panther": 16115,
  "matter": 27009,
  "▁Deutsche": 25137,
  "▁banner": 10827,
  "▁upstream": 20991,
  "▁sober": 20772,
  "▁MAY": 19413,
  "met": 6831,
  "ifies": 14507,
  "▁onwards": 21334,
  "▁Naturally": 16451,
  "▁WR": 16430,
  "▁provincial": 14681,
  "▁Tyson": 27728,
  "AQ": 23064,
  "▁halfway": 15489,
  "compliance": 29031,
  "raven": 30250,
  "▁Malone": 27609,
  "▁Rear": 14651,
  "▁inaccuracies": 30739,
  "▁jerseys": 18768,
  "▁CHANGE": 30726,
  "▁made": 439,
  "wan": 5144,
  "No": 4540,
  "Gu": 16031,
  "<0xC9>": 204,
  "▁contempt": 25753,
  "dried": 30237,
  "Term": 23798,
  "▁6:00": 18060,
  "▁empathy": 16661,
  "▁added": 952,
  "▁Folk": 15144,
  "0,000.": 24081,
  "▁also": 329,
  "▁findings": 4925,
  "▁Hydro": 11878,
  "▁residence": 4279,
  "niya": 31052,
  "▁Mexican": 7313,
  "▁appreciate": 2745,
  "▁treatments": 4177,
  "▁Attention": 22733,
  "▁reggae": 31306,
  "akin": 16961,
  "▁Atkins": 23987,
  "▁violation": 8362,
  "rrell": 15708,
  "▁Yama": 23042,
  "dry": 11318,
  "▁go": 449,
  "direction": 29692,
  "▁Denver": 7677,
  "managed": 25783,
  "▁на": 19229,
  "▁solitude": 28639,
  "▁Edinburgh": 11271,
  "▁iPad": 5005,
  "157": 24744,
  "▁REAL": 18852,
  "value": 9849,
  "tax": 11852,
  "▁predictions": 12405,
  "▁brings": 2528,
  "▁revive": 22932,
  "▁Practical": 20665,
  "▁Discuss": 18782,
  "▁Michigan": 4238,
  "Our": 8590,
  "▁turnover": 11996,
  "▁critic": 16395,
  "▁disable": 13733,
  "▁liberty": 16796,
  "▁inauguration": 29399,
  "▁instalment": 29115,
  "DA": 6212,
  "▁proper": 2155,
  "▁Evergreen": 29215,
  "▁album": 2310,
  "▁invented": 13959,
  "▁goods": 3591,
  "acetyl": 27421,
  "▁engraving": 23672,
  "▁demonstrations": 16049,
  "▁rituals": 20437,
  "▁EX": 8185,
  "▁mold": 5332,
  "▁withdrawal": 8594,
  "▁teaching": 1927,
  "▁Colony": 27370,
  "parametric": 31957,
  "▁hills": 9001,
  "isation": 3773,
  "@": 1841,
  "ishing": 18532,
  "▁overwhelm": 26825,
  "▁rid": 4384,
  "▁Sharon": 15852,
  "▁pictures": 1641,
  "▁spinach": 14942,
  "▁plenty": 2034,
  "▁cit": 16901,
  "▁Cam": 6885,
  "▁CNC": 17841,
  "▁await": 12849,
  "rissa": 24181,
  "▁Heaven": 10868,
  "▁laughter": 14874,
  "<0x52>": 85,
  "▁approached": 9971,
  "▁accidents": 7721,
  "▁Bron": 19561,
  "▁Try": 3606,
  "▁steer": 13128,
  "▁aftermath": 19270,
  "▁Clarence": 30980,
  "eek": 10386,
  "▁Trunk": 30175,
  "▁prosecutor": 13927,
  "▁PURPOSE": 29985,
  "0.000": 21415,
  "▁1953": 20680,
  "broken": 23526,
  "cut": 5714,
  "▁prosthetic": 28715,
  "still": 16886,
  "▁Jelly": 27506,
  "▁DR": 8070,
  "layer": 11929,
  "▁vision": 2154,
  "▁finely": 19687,
  "73": 6033,
  "▁assessed": 9481,
  "▁file": 1003,
  "▁girls": 2718,
  "▁contacted": 8410,
  "▁***": 16190,
  "▁Vick": 17847,
  "aka": 5341,
  "▁Newark": 23794,
  "period": 29804,
  "retaining": 15120,
  "▁honest": 3599,
  "▁tighter": 23781,
  "ime": 12052,
  "swath": 31934,
  "▁Justin": 9301,
  "▁Pasadena": 26940,
  "Digital": 28732,
  "rising": 15082,
  "▁thousands": 2281,
  "▁CLI": 25087,
  "▁Finding": 9305,
  "▁Diana": 15576,
  "▁Evolution": 18109,
  "▁prices": 1366,
  "▁prohibited": 10446,
  "woven": 25165,
  "▁harder": 4947,
  "unit": 11961,
  "▁granola": 28764,
  "▁countless": 7659,
  "▁Tammy": 30435,
  "▁yogi": 31374,
  "▁Stol": 30853,
  "▁infection": 5422,
  "▁young": 994,
  "▁Shore": 10770,
  "▁affinity": 22524,
  "▁connecting": 5775,
  "Use": 23860,
  "hefty": 21462,
  "▁2.": 1956,
  "eat": 9500,
  "▁fixture": 13025,
  "anne": 7934,
  "KS": 15779,
  "▁Employer": 16926,
  "▁stunned": 24686,
  "▁Milan": 11906,
  "▁liaison": 24973,
  "▁unmatched": 20374,
  "€“": 30489,
  "▁Heating": 16117,
  "▁certification": 4533,
  "▁daily": 1297,
  "offending": 30180,
  "▁Sherwood": 31763,
  "▁hell": 7458,
  "▁19,": 9042,
  "▁oldest": 6556,
  "▁Terra": 14889,
  "▁climb": 5228,
  "MAC": 26239,
  "allotted": 27102,
  "▁skating": 20233,
  "Ju": 17610,
  "▁Activation": 31436,
  "▁videos": 2370,
  "Free": 11604,
  "<0xAF>": 178,
  "▁Tal": 13692,
  "IR": 5836,
  "▁twisted": 18530,
  "▁Sikh": 27388,
  "<0xE5>": 232,
  "▁1962": 16922,
  "▁alien": 8076,
  "▁Bhu": 30131,
  "index": 17952,
  "▁memorial": 10341,
  "▁sensing": 17576,
  "▁atop": 17286,
  "▁Wick": 16109,
  "rous": 8168,
  "▁Joey": 22951,
  "sala": 20140,
  "▁emails": 5236,
  "▁arrange": 5232,
  "ordinarily": 29510,
  "LIST": 26470,
  "▁Period": 14707,
  "▁Equipment": 6778,
  "▁nearly": 1782,
  "▁esp": 21299,
  "▁Cen": 25190,
  "▁Creek": 5185,
  "▁Attraction": 28670,
  "▁trails": 7072,
  "▁education": 1035,
  "▁town": 1356,
  "▁slider": 16516,
  "accept": 27242,
  "potted": 27368,
  "kamagra": 28265,
  "▁Student": 5294,
  "▁Engage": 25827,
  "▁treasures": 17002,
  "▁trimmer": 30022,
  "▁refurbished": 20637,
  "SEL": 23076,
  "▁Gandhi": 19660,
  "▁Broker": 15502,
  "stroke": 18898,
  "▁Evelyn": 28749,
  "▁ceremony": 4966,
  "▁LOVE": 7890,
  "▁saxophone": 30974,
  "▁flame": 10910,
  "▁Arbor": 21226,
  "▁Meteor": 30043,
  "▁renovate": 28991,
  "▁stomach": 6790,
  "▁SIGN": 29922,
  "▁Watt": 15877,
  "▁NEC": 23085,
  "▁wiper": 26337,
  "▁Assessment": 10120,
  "▁Beaumont": 31954,
  "▁lecturer": 17441,
  "▁Kingdom": 4433,
  "▁Tuft": 29902,
  "▁ruler": 14251,
  "▁became": 1426,
  "supplementary": 25307,
  "▁intent": 6925,
  "▁Contribution": 25291,
  "▁independence": 7945,
  "219": 27181,
  "▁FY": 15385,
  "▁emotion": 9934,
  "!)": 4591,
  "ura": 5055,
  "▁drawback": 17913,
  "behaving": 28928,
  "▁massacre": 24441,
  "▁Restaurant": 6861,
  "▁km": 3859,
  "zon": 13944,
  "▁salmon": 9983,
  "chemical": 14287,
  "▁Kom": 19069,
  "purpose": 11447,
  "▁harmless": 17797,
  "▁law": 934,
  "▁stellar": 16355,
  "manship": 21834,
  "▁naive": 24332,
  "▁1/4\"": 24277,
  "▁Opt": 16381,
  "ops": 9738,
  "▁fatal": 11975,
  "YO": 18103,
  "▁contributors": 16896,
  "▁Explain": 18597,
  "▁may": 371,
  "Bot": 23352,
  "▁Buc": 23536,
  "gaard": 29562,
  "▁Alice": 11201,
  "▁Journalist": 28341,
  "▁peaceful": 7290,
  "▁Kaufman": 31046,
  "▁Chap": 20438,
  "▁security": 982,
  "▁formatting": 18625,
  "▁Harvey": 14953,
  "▁heroic": 22883,
  "▁lines": 1813,
  "<0x28>": 43,
  "▁teens": 9546,
  "bar": 3008,
  "▁Pressure": 15073,
  "▁municipalities": 19484,
  "▁Idea": 15683,
  "▁pyro": 29621,
  "▁supply": 1575,
  "▁Authentic": 16448,
  "▁City": 908,
  "sel": 3834,
  "▁surcharge": 24606,
  "▁consent": 4788,
  "▁Rank": 18202,
  "▁craze": 27684,
  "▁Cell": 6783,
  "▁remediation": 23615,
  "brainer": 29058,
  "3,": 6327,
  "▁Elk": 19762,
  "▁absurd": 17641,
  "Dec": 20583,
  "dumped": 23836,
  "▁59": 9511,
  "▁Weld": 20928,
  "download": 20414,
  "▁translator": 16672,
  "Engine": 28105,
  "▁Jewish": 4520,
  "mus": 5583,
  "▁Tennessee": 7881,
  "▁engraved": 20674,
  "▁Sioux": 26956,
  "▁Psalm": 19792,
  "▁Somewhere": 29094,
  "▁tail": 5590,
  "▁realized": 3967,
  "▁mentally": 12593,
  "▁messy": 14696,
  "for": 1370,
  "▁Magn": 14488,
  "▁lavish": 20452,
  "▁doom": 24583,
  "▁innovations": 11433,
  "▁(2000)": 26089,
  "▁$2,000": 26027,
  "▁organs": 13375,
  "▁Shelf": 24002,
  "Sun": 22101,
  "▁$19": 24392,
  "▁First": 1325,
  "TION": 11931,
  "MR": 11599,
  "ité": 27032,
  "▁usher": 22952,
  "<0x2E>": 49,
  "hala": 18429,
  "▁occasional": 9321,
  "▁crust": 9792,
  "▁mile": 4909,
  "blog": 11935,
  "▁Alps": 25038,
  "▁bible": 20176,
  "business": 12713,
  "▁Hum": 12848,
  "▁clarity": 8244,
  "▁image": 1015,
  "▁Archaeology": 30038,
  "▁McDonald": 12541,
  "▁adj": 29265,
  "ieving": 26936,
  "▁sneak": 10151,
  "▁Abraham": 13121,
  "▁Fortune": 14859,
  "▁Napoleon": 24088,
  "▁Ul": 11761,
  "▁remedies": 13548,
  "▁Virtu": 29611,
  "▁cheating": 20995,
  "HF": 13197,
  "▁mirrored": 24179,
  "otter": 23724,
  "quoting": 25633,
  "▁peak": 4564,
  "▁professionalism": 12537,
  "▁creation": 2883,
  "▁Baby": 6010,
  "▁Taste": 17084,
  "▁veterinary": 17277,
  "▁Bunny": 26341,
  "▁Wait": 11782,
  "▁Grim": 18516,
  "▁entire": 1162,
  "lou": 8427,
  "▁Scrap": 20027,
  "▁Garcia": 18241,
  "▁dispersion": 29282,
  "▁countertops": 16137,
  "▁Strong": 10276,
  "1.6": 22136,
  "▁evacuation": 23216,
  "▁Mustang": 19563,
  "unfavorable": 31378,
  "▁wilderness": 14569,
  "▁chains": 10655,
  "▁incremental": 20895,
  "▁departed": 22944,
  "▁suicide": 8839,
  "▁Probably": 11757,
  "▁mad": 8964,
  "▁Swansea": 29973,
  "▁syllabus": 23508,
  "kul": 18577,
  "<0x03>": 6,
  "▁forward": 978,
  "flew": 12816,
  "▁giggle": 28252,
  "depicted": 18224,
  "VT": 14900,
  "EAN": 25057,
  "▁segments": 9711,
  "▁Calcium": 27999,
  "▁Living": 4172,
  "▁determination": 7388,
  "FRA": 24736,
  "▁Outreach": 25909,
  "▁Hong": 5594,
  "▁quartz": 15813,
  "▁marrow": 24822,
  "▁Bulk": 23814,
  "▁NOAA": 30684,
  "LG": 23453,
  "▁Bureau": 7695,
  "IC": 5844,
  "▁both": 477,
  "▁Malibu": 29694,
  "rich": 5345,
  "▁Refresh": 24909,
  "▁Europe": 1718,
  "issuing": 17744,
  "▁feast": 12523,
  "▁Edgar": 23486,
  "▁(+": 17965,
  "▁unrest": 26166,
  "und": 5445,
  "Edit": 22209,
  "▁RI": 12543,
  "=0": 26836,
  "▁Does": 2737,
  "▁patch": 5599,
  "▁lively": 11739,
  "▁Provision": 24560,
  "▁impartial": 25254,
  "▁toilet": 6169,
  "▁resemble": 10914,
  "мен": 31421,
  "▁Demand": 18537,
  "▁Greatest": 26383,
  "▁Hybrid": 17551,
  "▁dividend": 13719,
  "▁reckless": 22138,
  "▁pearl": 11616,
  "▁starters": 16881,
  "▁Keen": 22736,
  "▁Luna": 17351,
  "▁Observation": 28779,
  "▁documentary": 8055,
  "▁contains": 2002,
  "▁pomegranate": 29826,
  "▁electrician": 17812,
  "▁shaking": 17829,
  "minimizing": 21778,
  "4.6": 19853,
  "▁Turtle": 22260,
  "▁Off": 4562,
  "▁Gordon": 10129,
  "March": 19465,
  "▁RESULT": 26925,
  "▁Dai": 18303,
  "▁mag": 10422,
  "▁cakes": 10634,
  "▁enrich": 17121,
  "▁New": 515,
  "▁saree": 31127,
  "Surely": 21039,
  "▁honeymoon": 20287,
  "▁Russ": 19587,
  "test": 5511,
  "▁asked": 1245,
  "▁Energy": 3402,
  "<extra_id_40>": 32059,
  "▁quinoa": 25887,
  "IF": 9118,
  "▁describing": 10458,
  "▁streak": 12394,
  "▁prowess": 28499,
  "▁axle": 19945,
  "▁issue": 946,
  "tetra": 22611,
  "muni": 16700,
  "▁Pokemon": 18184,
  "▁dressing": 7081,
  "▁camper": 20759,
  "155": 19111,
  "▁Fluid": 25207,
  "planned": 23039,
  "▁64": 5717,
  "▁studies": 1740,
  "▁warm": 1714,
  "▁interpersonal": 22856,
  "▁multiplier": 26945,
  "tang": 13328,
  "▁ramp": 9342,
  "▁peril": 26622,
  "NIGHT": 28616,
  "▁deciding": 8110,
  "▁invisible": 12737,
  "▁ban": 5233,
  "▁story": 801,
  "▁piano": 6157,
  "BEL": 24680,
  "▁performance": 850,
  "▁stencil": 21476,
  "▁lighter": 7975,
  "▁protector": 16803,
  "▁redemption": 18554,
  "▁inform": 3994,
  "crafted": 25217,
  "▁misrepresent": 29440,
  "▁2019,": 8589,
  "▁gastro": 23060,
  "▁Zombie": 23251,
  "▁Louise": 19238,
  "▁adjacent": 8044,
  "▁Tan": 7941,
  "lands": 8371,
  "▁thoroughly": 5811,
  "▁PHOTO": 30460,
  "▁Ice": 7323,
  "):": 3864,
  "zu": 8922,
  "▁Olympics": 12717,
  "▁Legislative": 24678,
  "▁Degree": 10088,
  "▁preventing": 8014,
  "OMA": 25641,
  "▁braces": 18834,
  "▁Philly": 26434,
  "▁24": 1300,
  "▁meant": 2713,
  "386": 27980,
  "mom": 22110,
  "▁Festival": 3324,
  "▁Houston": 5641,
  "Rory": 29403,
  "▁discussion": 2486,
  "▁COO": 23562,
  "▁dialysis": 28875,
  "▁Related": 11573,
  "cz": 16025,
  "▁intracellular": 31494,
  "▁behind": 1126,
  "Mr": 19924,
  "▁fairy": 14670,
  "▁homeland": 22163,
  "yuan": 23525,
  "umba": 21024,
  "▁rocket": 10379,
  "▁Kashmir": 19079,
  "neurotransmitter": 31337,
  "▁certified": 3448,
  "▁Porcelain": 31224,
  "etic": 6612,
  "▁Rooms": 16450,
  "▁bars": 4362,
  "▁rating": 4009,
  "▁neural": 15884,
  "▁creativity": 4921,
  "▁Gemini": 28214,
  "▁Smash": 25030,
  "min": 2879,
  "▁Strike": 18903,
  "meyer": 28987,
  "▁$9": 10575,
  "▁choreography": 28315,
  "▁Alabama": 8462,
  "▁fanatic": 24141,
  "▁pitched": 19188,
  "▁clinch": 27256,
  "treatment": 20086,
  "GEN": 18807,
  "located": 22724,
  "▁Precision": 20501,
  "▁Castle": 7179,
  "processing": 23788,
  "▁Lavender": 26083,
  "▁(50": 20737,
  "▁STEM": 15794,
  "serv": 10092,
  "▁Ashton": 29234,
  "▁Ar": 2816,
  "▁danger": 6312,
  "▁ALWAYS": 26958,
  "▁start": 571,
  "▁realities": 17338,
  "▁Carbon": 11081,
  "BIT": 22021,
  "▁Television": 15192,
  "▁Hughes": 14426,
  "▁Fee": 12054,
  "otomy": 26686,
  "▁Stitch": 22462,
  "edge": 8101,
  "▁Note": 2470,
  "▁Pradesh": 15818,
  "zi": 4252,
  "▁PARTY": 30885,
  "digit": 20539,
  "▁fossil": 10962,
  "▁forty": 12589,
  "▁(19": 3682,
  "▁Malcolm": 22561,
  "▁urban": 3547,
  "▁excited": 2296,
  "▁correlated": 21960,
  "▁faded": 22093,
  "▁approaching": 10312,
  "sculpted": 29067,
  "▁dis": 1814,
  "▁Nor": 5525,
  "▁Producer": 18938,
  "▁Acne": 31861,
  "adoptive": 31416,
  "▁teacher": 2376,
  "Baby": 27166,
  "▁NV": 16808,
  "▁900": 12614,
  "▁Sap": 24471,
  "after": 7649,
  "▁Doyle": 24698,
  "▁Hook": 15586,
  "▁Options": 10781,
  "▁7": 751,
  "▁ventilation": 13713,
  "▁stimuli": 26014,
  "▁Writers": 17908,
  "▁flock": 14387,
  "▁Tyler": 13130,
  "▁retina": 25407,
  "▁Dropbox": 25882,
  "▁Ru": 4236,
  "▁lactose": 31021,
  "▁Carrot": 30952,
  "▁Bluetooth": 8968,
  "▁hath": 25927,
  "digital": 22261,
  "<0x51>": 84,
  "TEN": 15643,
  "Stop": 24355,
  "▁IMPORTANT": 30259,
  "steroid": 20480,
  "▁Katherine": 21772,
  "▁traditional": 1354,
  "Force": 28337,
  "▁marking": 9485,
  "ides": 15216,
  "▁Malawi": 28022,
  "▁brethren": 29022,
  "▁socialist": 23410,
  "▁cheering": 25404,
  "▁wanting": 5391,
  "▁recess": 22868,
  "▁Baltimore": 9879,
  "▁Bethel": 31058,
  "▁tribe": 15176,
  "▁DISCLAIM": 31094,
  "▁Statute": 30019,
  "▁advise": 5180,
  "▁penalty": 7107,
  "▁omit": 26761,
  "<0xD6>": 217,
  "▁latte": 27504,
  "▁diagrams": 16374,
  "handed": 14641,
  "honoured": 25310,
  "▁concierge": 25958,
  "▁fault": 5402,
  "▁meta": 8722,
  "▁abusive": 21309,
  "▁resolve": 5095,
  "▁Nina": 24149,
  "▁outbreak": 14878,
  "▁Deposit": 15218,
  "▁calling": 2875,
  "fund": 16317,
  "▁sit": 2267,
  "▁07": 8753,
  "orient": 16946,
  "▁Literary": 24435,
  "▁jersey": 13285,
  "stemming": 30299,
  "▁choreographer": 29663,
  "▁following": 840,
  "▁Benefits": 14587,
  "4.8": 22129,
  "▁swarm": 24379,
  "▁notify": 9148,
  "▁compromised": 15510,
  "▁Retro": 19695,
  "▁Ellen": 15801,
  "▁captive": 23165,
  "migration": 29344,
  "▁bulb": 12443,
  "ways": 8955,
  "▁abs": 15353,
  "▁Whip": 26931,
  "▁Italy": 3789,
  "RAD": 19158,
  "▁Impact": 10014,
  "▁Kimberly": 27748,
  "habit": 24615,
  "western": 26541,
  "▁Lyme": 26804,
  "gent": 5006,
  "attributed": 13810,
  "▁Paint": 8082,
  "▁Wealth": 20661,
  "▁Doom": 27208,
  "▁Fraud": 26971,
  "▁state": 619,
  "▁FIRST": 22271,
  "▁gorgeous": 3723,
  "▁installer": 11977,
  "▁florist": 20371,
  "neum": 23072,
  "▁CA": 2827,
  "▁Info": 9387,
  "▁Sessions": 19509,
  "▁brackets": 17749,
  "▁Extraordinary": 30312,
  "▁derail": 25706,
  "meric": 21310,
  "▁artefacts": 30609,
  "setting": 15169,
  "▁tweeted": 21332,
  "▁Volcano": 30512,
  "▁breeding": 12599,
  "▁Consulting": 12869,
  "NR": 10019,
  "▁motivational": 23759,
  "K": 712,
  "▁uplifting": 22982,
  "▁Bellevue": 29675,
  "▁endpoint": 20334,
  "Invest": 30928,
  "rant": 4694,
  "▁portal": 6639,
  "▁Latvia": 21297,
  "▁Premier": 6477,
  "▁Southeastern": 29874,
  "achi": 12877,
  "▁whip": 17422,
  "▁Gre": 7674,
  "▁ever": 723,
  "bing": 8723,
  "▁Dur": 8613,
  "▁PE": 8378,
  "▁attractive": 3737,
  "▁Rates": 18248,
  "▁Nelson": 10170,
  "Tek": 21626,
  "▁Renault": 25779,
  "liner": 14483,
  "▁rainfall": 16547,
  "disguised": 31814,
  "▁flavorful": 22760,
  "▁Shin": 9490,
  "▁programming": 4213,
  "▁Body": 6444,
  "▁galaxies": 27095,
  "ö": 6201,
  "▁Lady": 6650,
  "▁desert": 6770,
  "Smith": 24835,
  "itz": 6461,
  "▁saucepan": 18680,
  "▁familiar": 2920,
  "max": 10416,
  "▁exporter": 18856,
  "▁conserve": 14105,
  "▁our": 310,
  "▁Thumb": 31439,
  "▁Lucky": 15601,
  "rinkle": 27446,
  "▁dictator": 27129,
  "▁nickel": 15409,
  "RAIN": 26370,
  "▁Perth": 14321,
  "RL": 11683,
  "▁tender": 6014,
  "▁voted": 7355,
  "▁stylish": 5074,
  "▁government": 826,
  "▁ADHD": 21269,
  "▁8.": 5968,
  "▁IEEE": 15096,
  "▁Thunderbird": 31674,
  "interoperability": 29412,
  "▁Mic": 17372,
  "▁flood": 5664,
  "▁Woo": 15492,
  "▁1989": 8580,
  "▁Weekend": 14680,
  "packed": 18391,
  "▁telecom": 18536,
  "ergi": 26363,
  "▁bill": 2512,
  "▁cloak": 25367,
  "321": 25817,
  "▁Massachusetts": 6808,
  "▁HAVE": 14633,
  "▁View": 2943,
  "▁Meditation": 23184,
  "▁benefit": 1390,
  "▁liberation": 26194,
  "▁casing": 21377,
  "▁Container": 22028,
  "favorably": 30772,
  "▁notebook": 11251,
  "contact": 24063,
  "▁counselor": 11990,
  "▁Same": 10871,
  "CA": 4698,
  "▁points": 1105,
  "KE": 17180,
  "▁Alaska": 7876,
  "▁WASHINGTON": 27232,
  "▁Mot": 15521,
  "▁armchair": 28279,
  "▁hiccup": 31678,
  "▁meteor": 20766,
  "▁Strauss": 31787,
  "▁detector": 12486,
  "▁broke": 5668,
  "▁polypropylene": 30217,
  "▁snowflake": 28912,
  "▁saturated": 17027,
  "▁manufacture": 6434,
  "▁whereabouts": 31231,
  "▁Random": 18901,
  "▁Horizon": 16474,
  "▁Edmond": 29866,
  "▁Real": 2845,
  "▁100,000": 13032,
  "▁gay": 11404,
  "ali": 7223,
  "<0x21>": 36,
  "▁assessing": 13844,
  "▁Submitted": 25492,
  "▁Treasury": 13884,
  "▁climbing": 7715,
  "agno": 25821,
  "▁Cart": 11943,
  "▁disastrous": 23023,
  "▁Forensic": 28415,
  "▁jungle": 14398,
  "▁Their": 2312,
  "▁Fun": 7219,
  "▁relatable": 31050,
  "▁Carmen": 25298,
  "▁frost": 14183,
  "▁FM": 10166,
  "▁Wing": 10983,
  "▁def": 10082,
  "▁eine": 23126,
  "▁everyday": 3308,
  "45": 2927,
  "smartest": 31126,
  "▁sometimes": 1457,
  "▁mean": 1145,
  "▁displayed": 4061,
  "LUM": 27645,
  "sley": 9997,
  "▁silo": 24918,
  "▁Rug": 14729,
  "▁Responsible": 22573,
  "asserted": 26633,
  "▁pulled": 4787,
  "▁belt": 5299,
  "▁result": 839,
  "▁represent": 3110,
  "▁excitement": 6887,
  "▁family": 525,
  "▁12:00": 21911,
  "▁6:30": 15927,
  "document": 24626,
  "▁1969": 13396,
  "▁wood": 1525,
  "▁superior": 3794,
  "▁historian": 12645,
  "▁rust": 10491,
  "▁carrots": 14509,
  "▁planets": 17363,
  "trained": 14562,
  "▁Basement": 17538,
  "▁Britain": 4920,
  "▁Cath": 24271,
  "▁inevitable": 11385,
  "▁shifted": 14219,
  "▁companion": 8453,
  "hid": 11410,
  "▁Fifteen": 31232,
  "▁promising": 8680,
  "▁assemblies": 22705,
  "▁senses": 15318,
  "▁labeling": 21817,
  "ter": 1385,
  "▁subdivision": 19378,
  "friendly": 3832,
  "V": 912,
  "ometer": 10293,
  "▁boiling": 14959,
  "▁grassland": 28863,
  "ve": 401,
  "▁competitions": 12116,
  "▁Castel": 29485,
  "<0x7A>": 125,
  "▁bullying": 17705,
  "▁motif": 14217,
  "▁Cy": 8018,
  "Bur": 24434,
  "▁Spiritual": 17668,
  "▁beer": 3938,
  "▁Science": 2314,
  "▁Holding": 21102,
  "alter": 20853,
  "▁indulge": 17189,
  "berry": 7008,
  "▁size": 827,
  "213": 26484,
  "▁newest": 6229,
  "▁substrate": 11475,
  "▁Pl": 12760,
  "▁cl": 9223,
  "▁asteroid": 27119,
  "eber": 23062,
  "▁Luck": 20491,
  "▁Scho": 16915,
  "▁advising": 17476,
  "▁Aloe": 27224,
  "▁2%": 15441,
  "▁cracking": 18243,
  "▁Mai": 11627,
  "▁flashing": 19867,
  "▁experiencing": 5696,
  "<0xB9>": 188,
  "▁RAM": 9190,
  "▁widow": 16354,
  "▁rattle": 24454,
  "▁acquainted": 22687,
  "▁African": 2921,
  "▁ONLY": 13218,
  "▁Township": 14243,
  "▁gifts": 3615,
  "750": 15955,
  "stumbled": 18295,
  "▁camaraderie": 30593,
  "▁prioritize": 17651,
  "▁Software": 4152,
  "July": 21361,
  "▁pastries": 25557,
  "▁hook": 6200,
  "▁proximal": 24673,
  "▁Jewel": 19805,
  "▁Business": 1664,
  "powered": 12124,
  "▁excell": 29495,
  "▁renaissance": 30850,
  "▁Brian": 5734,
  "beaten": 26942,
  "▁booze": 31227,
  "▁Owen": 13275,
  "▁vessel": 8255,
  "ologists": 12463,
  "3-6": 21021,
  "▁bears": 11386,
  "▁Fulton": 29452,
  "▁map": 2153,
  "▁apnea": 27745,
  "▁mortar": 17878,
  "▁mob": 16826,
  "▁Dr": 907,
  "▁refinance": 25166,
  "▁Grove": 9813,
  "▁spinner": 27452,
  "▁Significant": 28720,
  "cial": 10776,
  "▁corrected": 15189,
  "▁let": 735,
  "▁cycles": 11471,
  "or": 436,
  "▁III": 5982,
  "So": 6400,
  "▁ignorant": 23342,
  "voicing": 24994,
  "▁Candy": 18619,
  "eem": 11609,
  "▁organise": 10826,
  "▁brow": 17484,
  "▁rewards": 7539,
  "established": 18827,
  "▁cleaned": 8198,
  "▁(3": 6990,
  "▁multitude": 13024,
  "▁visa": 6479,
  "▁malaria": 22244,
  "▁Carrie": 21446,
  "▁settlers": 22594,
  "▁restricted": 7906,
  "▁chat": 3350,
  "▁Ultimate": 12101,
  "▁Infrastructure": 17013,
  "itude": 10563,
  "▁practicing": 8488,
  "▁abundance": 9430,
  "▁Praise": 26708,
  "essay": 25984,
  "▁1914": 21358,
  "effective": 6697,
  "▁boxing": 19756,
  "▁described": 2302,
  "3000": 26204,
  "arna": 22945,
  "circ": 16263,
  "▁controllers": 17946,
  "▁battalion": 30785,
  "occupying": 28197,
  "▁mRNA": 26250,
  "▁Jong": 26987,
  "▁Stories": 13910,
  "▁accomplished": 6856,
  "▁improved": 2829,
  "▁deputy": 14715,
  "′": 12440,
  "▁AT": 5289,
  "<extra_id_98>": 32001,
  "▁viable": 10531,
  "▁Richmond": 11578,
  "pel": 6876,
  "▁Laboratories": 27142,
  "▁2009)": 23894,
  "nning": 12012,
  "▁Enhance": 21621,
  "▁CC": 6589,
  "▁banking": 5554,
  "▁crude": 13508,
  "▁Conference": 3148,
  "▁exemption": 13133,
  "▁priests": 19166,
  "▁Dip": 21942,
  "▁laughing": 13437,
  "▁curator": 18546,
  "▁strengthened": 19334,
  "panel": 25808,
  "ough": 7690,
  "▁Garage": 9878,
  "outweigh": 23200,
  "300": 5522,
  "widest": 24637,
  "▁convert": 4690,
  "▁pc": 9232,
  "▁Per": 2969,
  "▁essay": 2169,
  "▁fatalities": 26930,
  "▁fisheries": 25665,
  "CY": 15102,
  "▁indirect": 13759,
  "▁UP": 9348,
  "▁IPv": 25373,
  "▁Brothers": 11550,
  "▁Applied": 13889,
  "▁costly": 7316,
  "▁Circ": 21554,
  "2.0": 18547,
  "▁NA": 5943,
  "▁?????????": 30544,
  "lsen": 20919,
  "Light": 20964,
  "co": 931,
  "▁Ted": 14026,
  "RIC": 19963,
  "6-1": 20521,
  "▁safest": 19707,
  "▁buck": 14935,
  "▁Cur": 6468,
  "▁festive": 11729,
  "White": 19271,
  "▁assignment": 6520,
  "▁unsuccessful": 18470,
  "▁Slav": 20555,
  "▁successive": 20604,
  "pping": 6913,
  "▁relie": 8040,
  "▁constantly": 3171,
  "▁colours": 4608,
  "1/2": 14676,
  "standard": 15206,
  "▁relax": 4275,
  "▁bunny": 25397,
  "NL": 12514,
  "▁shocking": 15047,
  "▁chaotic": 21246,
  "▁recourse": 29977,
  "Quality": 31918,
  "▁Watkins": 29439,
  "▁subtle": 6734,
  "▁prediction": 12967,
  "ppi": 21685,
  "▁roulette": 12957,
  "▁drier": 30558,
  "▁oriental": 29929,
  "▁inning": 17479,
  "▁credible": 17296,
  "▁penalties": 11220,
  "▁Thermo": 18426,
  "▁suburban": 18483,
  "▁indeed": 3666,
  "▁jealous": 15875,
  "▁Vote": 16824,
  "▁Jose": 8864,
  "hali": 21781,
  "▁aches": 26315,
  "▁replies": 19032,
  "▁journalists": 11033,
  "▁corpus": 29821,
  "▁sending": 4042,
  "▁poured": 15548,
  "▁amateur": 12522,
  "▁Gift": 7592,
  "▁Pro": 1412,
  "crete": 28256,
  "▁swept": 17467,
  "▁Monitor": 13839,
  "▁Lauderdale": 22960,
  "▁Procurement": 30324,
  "▁9,": 8947,
  "▁Fedora": 31886,
  "cru": 9395,
  "sho": 7974,
  "▁after": 417,
  "ity": 888,
  "81": 6144,
  "▁duty": 3988,
  "▁competing": 8109,
  "▁sells": 11001,
  "DIA": 18160,
  "▁educate": 8417,
  "grave": 20007,
  "esthesi": 21225,
  "▁Right": 3548,
  "▁Whatever": 6939,
  "▁stature": 28277,
  "▁Poster": 21844,
  "▁Venice": 14456,
  "▁consensus": 11182,
  "▁trivia": 27272,
  "▁syrup": 10633,
  "▁node": 9210,
  "faith": 22906,
  "▁peel": 9109,
  "▁destroyed": 7060,
  "▁Tim": 4336,
  "rest": 6863,
  "▁are": 280,
  "▁apples": 11047,
  "▁Ship": 9388,
  "▁2003.": 13718,
  "▁Domino": 25581,
  "▁1/2": 5591,
  "▁quo": 16072,
  "▁thrilled": 9146,
  "▁Ohio": 4292,
  "▁managerial": 25288,
  "▁RPG": 20629,
  "▁embark": 12965,
  "▁Much": 5931,
  "LOCK": 25357,
  "wolf": 26775,
  "<extra_id_11>": 32088,
  "▁Poverty": 28380,
  "▁1901": 26799,
  "▁Waste": 12024,
  "wise": 7708,
  "▁tooth": 5209,
  "▁IL": 7613,
  "▁growing": 1486,
  "▁dissolution": 27840,
  "create": 22880,
  "▁Erdogan": 31680,
  "ovich": 20793,
  "▁11": 986,
  "▁Boy": 5749,
  "281": 27769,
  "▁profitability": 15301,
  "▁Fitting": 28841,
  "▁hindsight": 30514,
  "3-2": 16316,
  "NB": 13127,
  "Christian": 23419,
  "ryan": 26274,
  "▁Landscape": 14893,
  "radually": 31429,
  "▁removed": 2760,
  "▁giveaway": 9955,
  "▁swirl": 21148,
  "▁Emotional": 26927,
  "▁NBA": 10124,
  "dark": 23844,
  "▁supervised": 19039,
  "▁water": 518,
  "▁1930": 11290,
  "▁Cream": 9961,
  "▁grandmother": 11039,
  "▁sharply": 21389,
  "▁joke": 9808,
  "flight": 19698,
  "▁patriarch": 29609,
  "▁perceived": 9377,
  "▁JD": 18866,
  "▁assigned": 4873,
  "▁recreate": 17078,
  "▁meeting": 1200,
  "▁schizophrenia": 28027,
  "▁thumb": 9126,
  "▁Haiti": 15682,
  "Act": 21427,
  "▁mention": 2978,
  "▁hive": 21905,
  "▁cows": 16785,
  "CHAR": 22589,
  "▁Ste": 6152,
  "▁firing": 12890,
  "▁Ped": 15372,
  "▁Hank": 22084,
  "Data": 15577,
  "tributing": 29336,
  "▁tokens": 17266,
  "▁Calculate": 29227,
  "▁quaint": 21190,
  "GRAPH": 29289,
  "cos": 10898,
  "▁receiving": 3131,
  "10,000": 27177,
  "▁irresponsible": 30220,
  "▁Money": 6293,
  "▁Antique": 17140,
  "▁cons": 9286,
  "drew": 24186,
  "centered": 18344,
  "▁Hull": 21775,
  "▁Against": 14982,
  "▁Mutual": 22803,
  "▁doctoral": 19311,
  "▁singers": 18905,
  "▁honor": 3675,
  "emb": 7156,
  "▁Cold": 8869,
  "▁2009": 3453,
  "▁veranda": 28793,
  "ex": 1842,
  "embellished": 28845,
  "▁flashes": 25258,
  "▁SH": 8705,
  "▁stimulating": 17198,
  "<0xD8>": 219,
  "Human": 27796,
  "▁runway": 16324,
  "▁Mansion": 27739,
  "▁viewing": 5102,
  "▁RPM": 23259,
  "▁Certain": 14806,
  "▁judiciary": 30178,
  "Tel": 27832,
  "▁Horn": 12796,
  "▁Dan": 3017,
  "<extra_id_24>": 32075,
  "30,000": 27793,
  "dov": 29095,
  "▁Sa": 2991,
  "<extra_id_65>": 32034,
  "rrah": 27747,
  "virus": 13557,
  "▁donors": 11850,
  "▁seems": 1207,
  "▁Sim": 7774,
  "▁Shirt": 19108,
  "negative": 26364,
  "▁Punjab": 16903,
  "▁Democratic": 6619,
  "1⁄2": 19121,
  "▁Mal": 4887,
  "▁republic": 18115,
  "▁continuously": 7604,
  "▁brownie": 22259,
  "exchanging": 25390,
  "▁Own": 13560,
  "ride": 11537,
  "TRAN": 23792,
  "▁doctors": 4029,
  "▁conceived": 18059,
  "▁bankruptcy": 9031,
  "▁reflective": 14033,
  "▁Adidas": 23583,
  "▁builder": 10994,
  "▁detailed": 2408,
  "▁directly": 1291,
  "▁delegation": 16427,
  "ishi": 21273,
  "HEA": 23953,
  "▁throw": 3438,
  "▁When": 505,
  "RT": 7268,
  "▁mouth": 3095,
  "▁Sabbath": 25998,
  "▁Heather": 14739,
  "▁Damage": 18563,
  "▁tuition": 9880,
  "▁tiger": 17854,
  "▁Grund": 30545,
  "▁Arrival": 27384,
  "▁interested": 1413,
  "SD": 6384,
  "▁screwed": 25937,
  "▁cellar": 18446,
  "▁businesses": 1418,
  "▁confidence": 2654,
  "certain": 30958,
  "▁Source": 6077,
  "▁Dump": 21684,
  "er": 365,
  "▁broadly": 16617,
  "▁buffet": 11548,
  "▁charity": 5545,
  "catching": 18720,
  "ograph": 20925,
  "▁condenser": 30777,
  "▁cosmo": 23225,
  "▁goddess": 23266,
  "▁crazy": 4259,
  "▁autonomy": 20739,
  "▁HTML": 7798,
  "▁Rise": 17502,
  "▁Painting": 13779,
  "▁Managed": 23151,
  "▁Judy": 19642,
  "directed": 23708,
  "view": 4575,
  "kind": 8361,
  "▁banks": 3628,
  "▁Crash": 25437,
  "▁Nad": 21075,
  "hil": 10043,
  "▁MPEG": 30098,
  "▁triple": 8639,
  "-30": 10298,
  "▁monster": 11655,
  "whilst": 4151,
  "▁unsettling": 31560,
  "▁seated": 15434,
  "▁proclamation": 30272,
  "▁Muslim": 7175,
  "tallest": 25636,
  "▁presses": 24588,
  "NIS": 30209,
  "duc": 11461,
  "▁Croatia": 14586,
  "riel": 16347,
  "▁Stamford": 29815,
  "▁awareness": 3221,
  "▁cheesy": 25747,
  "▁Dynamic": 16548,
  "▁Cyrus": 30296,
  "▁peaches": 27626,
  "risti": 18154,
  "▁Married": 30051,
  "▁Fac": 29721,
  "▁seizure": 15050,
  "▁qualify": 6470,
  "▁Beaver": 21150,
  "▁SP": 5374,
  "▁popularity": 6671,
  "▁Vi": 3849,
  "neighboring": 16732,
  "▁imposed": 11373,
  "ü": 5879,
  "▁dummy": 29825,
  "▁Answer": 11330,
  "▁placement": 5773,
  "-50": 13778,
  "5000": 26242,
  "▁remnant": 21253,
  "▁bake": 7319,
  "▁Flood": 20045,
  "Test": 23046,
  "179": 24509,
  "ATT": 22255,
  "▁ordinary": 6095,
  "▁mount": 5567,
  "leading": 14664,
  "cer": 4592,
  "▁temper": 20875,
  "▁opening": 1939,
  "enac": 29398,
  "▁Einstein": 23096,
  "▁cumin": 28012,
  "▁ATV": 24430,
  "▁presence": 2347,
  "glaring": 30611,
  "▁chosen": 2948,
  "CCA": 22922,
  "▁silently": 26277,
  "▁drives": 6154,
  "▁Kraft": 27800,
  "location": 12459,
  "▁ecological": 13170,
  "▁raising": 5378,
  "▁identifiable": 16182,
  "▁cacao": 30900,
  "▁Bishop": 10430,
  "▁LCD": 11689,
  "▁Dairy": 22959,
  "▁ISO": 7104,
  "bell": 6788,
  "▁Bark": 18377,
  "▁Jersey": 3720,
  "▁Lucie": 31749,
  "▁Conduct": 14274,
  "ulus": 19294,
  "▁smile": 3827,
  "▁social": 714,
  "▁Mag": 8065,
  "▁Gone": 21322,
  "▁date": 1016,
  "▁unclear": 12702,
  "▁certainly": 1597,
  "▁Assoc": 31911,
  "▁Thorn": 22993,
  "▁Awesome": 9067,
  "=1": 20810,
  "side": 1940,
  "▁morphology": 29666,
  "▁Injuries": 31952,
  "▁prayer": 4885,
  "▁responding": 10923,
  "▁teammate": 24825,
  "preceding": 16804,
  "▁winds": 9045,
  "▁hackers": 17514,
  "▁Ornament": 30927,
  "▁Ta": 3259,
  "▁received": 1104,
  "▁retirement": 4506,
  "▁Bug": 13352,
  "▁Hypno": 29649,
  "▁Randall": 27354,
  "▁Fed": 10146,
  "▁approximate": 16264,
  "▁releases": 7010,
  "▁ambiance": 21714,
  "▁describe": 3808,
  "▁inspiring": 6465,
  "▁2.2": 17206,
  "▁crews": 17574,
  "▁months": 812,
  "▁dispenser": 22173,
  "▁meticulous": 24659,
  "ologie": 13788,
  "▁Certainly": 15719,
  "▁reclaimed": 22954,
  "▁disappearance": 25300,
  "▁Customers": 10821,
  "gru": 18780,
  "▁artifact": 28476,
  "▁accordion": 31546,
  "▁onslaught": 31745,
  "▁acclimat": 28891,
  "giving": 13576,
  "penetrating": 28500,
  "▁artifacts": 16060,
  "▁enforced": 20854,
  "▁techno": 23670,
  "▁Vancouver": 7502,
  "NING": 20020,
  "ayla": 25200,
  "▁Springfield": 17656,
  "pdf": 12929,
  "validating": 31394,
  "▁diaphragm": 29778,
  "make": 13979,
  "▁brothers": 7137,
  "▁trademark": 8554,
  "70,000": 23204,
  "▁Gi": 3756,
  "RON": 14373,
  "▁Payday": 26212,
  "einem": 31850,
  "▁pull": 2859,
  "RIS": 12047,
  "lue": 25448,
  "Green": 17459,
  "FA": 5296,
  "▁sediment": 18231,
  "▁Worth": 10525,
  "Tube": 31842,
  "▁continually": 8230,
  "▁hadn": 7952,
  "▁Plant": 4559,
  "MIS": 23286,
  "nard": 17585,
  "▁Hindu": 12927,
  "▁Mock": 27107,
  "▁Coupon": 11759,
  "▁postcard": 16685,
  "▁Feed": 12304,
  "254": 28233,
  "▁Tottenham": 27111,
  "▁ultra": 6190,
  "marine": 23459,
  "▁mellow": 27356,
  "▁Tobacco": 26648,
  "▁Utilities": 25931,
  "Sphere": 24783,
  "▁SAM": 22579,
  "Ultimately": 13460,
  "hus": 15520,
  "▁Nash": 21572,
  "▁backsplash": 23492,
  "▁Technique": 17621,
  "▁appetite": 12018,
  "▁Dungeon": 29820,
  "▁Zimmerman": 29018,
  "▁limousine": 26417,
  "▁Meat": 17851,
  "▁everything": 800,
  "▁Curtis": 19305,
  "▁El": 2271,
  "::": 8286,
  "▁thrust": 17865,
  "▁vol": 9363,
  "▁Cabinets": 18348,
  "ile": 4081,
  "▁strategically": 17475,
  "▁Bag": 7151,
  "▁settlement": 5835,
  "▁infinity": 24548,
  "▁Laugh": 26449,
  "attan": 24183,
  "backed": 20900,
  "EN": 7626,
  "▁Cumberland": 28482,
  "▁Hairstyles": 29273,
  "▁stroller": 21200,
  "▁Hotel": 2866,
  "▁cousins": 20532,
  "▁chauffeur": 28971,
  "▁session": 1960,
  "▁108": 16845,
  "77": 5700,
  "▁treasure": 7330,
  "▁squid": 29639,
  "▁PRO": 6966,
  "▁brightest": 24037,
  "▁pigeon": 25594,
  "▁Line": 3485,
  "▁100": 1198,
  "▁bruise": 23354,
  "▁industry": 731,
  "▁because": 431,
  "▁Gaz": 22620,
  "seeded": 27157,
  "!),": 15565,
  "▁Junction": 20777,
  "▁talented": 5453,
  "▁Jill": 18413,
  "▁wraps": 17596,
  "cion": 16029,
  "▁Realty": 16920,
  "▁potty": 26361,
  "▁professors": 15948,
  "▁insurance": 985,
  "▁misguided": 30691,
  "▁irritation": 17371,
  "▁latent": 29843,
  "▁Memories": 28505,
  "▁irrevocabl": 30045,
  "▁4,000": 18935,
  "▁deem": 20921,
  "▁authentic": 5225,
  "immer": 15693,
  "▁abdominal": 18701,
  "▁scan": 5768,
  "▁stream": 3898,
  "▁radio": 2308,
  "▁sati": 20707,
  "▁dozens": 8326,
  "▁beast": 13233,
  "▁psi": 25964,
  "eben": 21856,
  "▁Burning": 26368,
  "▁reassure": 24130,
  "▁Birch": 25530,
  "▁Malaysia": 7842,
  "graphic": 11020,
  "▁Sh": 4661,
  "intro": 24821,
  "▁valves": 16613,
  "▁superficial": 23195,
  "▁drawers": 13869,
  "▁catapult": 31977,
  "▁might": 559,
  "mil": 9073,
  "▁instance": 2589,
  "▁Ancient": 15007,
  "▁rework": 24331,
  "▁misinformation": 31026,
  "▁outpatient": 19657,
  "▁Mediterranean": 9985,
  "lam": 4845,
  "▁compassionate": 15249,
  "▁Rogue": 25473,
  "▁likelihood": 11501,
  "94": 5916,
  "only": 7444,
  "▁cyclists": 20547,
  "▁Leather": 10357,
  "▁Development": 2405,
  "▁current": 785,
  "▁Ma": 2213,
  "shri": 27481,
  "▁announce": 4616,
  "▁grit": 19694,
  "▁1945": 16268,
  "▁Providence": 20033,
  "▁input": 3130,
  "▁Discovery": 13402,
  "▁watts": 24590,
  "▁vegetable": 8012,
  "▁opposed": 5985,
  "formerly": 21686,
  "▁habit": 7089,
  "▁infected": 11282,
  "▁West": 1254,
  "▁Christianity": 12044,
  "▁cav": 24260,
  ".99": 10588,
  "elli": 6731,
  "▁curtains": 9925,
  "PH": 11876,
  "▁Gain": 17707,
  "▁Apparently": 12570,
  "▁place": 480,
  "▁constraints": 11794,
  "▁genetic": 5769,
  "▁Nebraska": 13533,
  "y": 322,
  "▁sisters": 9569,
  "terio": 22540,
  "▁Moore": 8363,
  "▁motor": 3191,
  "▁leaf": 7028,
  "▁Lego": 19860,
  "voir": 25629,
  "▁happily": 11401,
  "▁dataset": 11967,
  "▁beverages": 12557,
  "Pad": 19610,
  "▁sun": 1801,
  "▁Brass": 16860,
  "▁prognosis": 27704,
  "▁Evaluate": 31452,
  "▁Fitness": 11762,
  "format": 21031,
  "▁Group": 1445,
  "35": 3576,
  "▁suffix": 31472,
  "▁($": 8148,
  "<extra_id_80>": 32019,
  "▁Reddit": 27139,
  "▁Idaho": 13555,
  "▁letting": 5677,
  "▁spine": 8825,
  "▁unilateral": 28190,
  "teau": 24933,
  "▁Jupiter": 19232,
  "hong": 17098,
  "▁stack": 5886,
  "▁reproduction": 13436,
  "Bio": 25095,
  "letter": 25420,
  "▁straight": 2135,
  "facebook": 26311,
  "Latin": 29498,
  "campus": 20180,
  "221": 25662,
  "<0x74>": 119,
  "▁distractions": 21274,
  "inson": 20303,
  "▁Indian": 2336,
  "▁Blogging": 28114,
  "▁Customize": 23586,
  "▁malicious": 14991,
  "▁reward": 6484,
  "▁bay": 6394,
  "▁250": 5788,
  "▁diligent": 25593,
  "▁uncommon": 14270,
  "▁claim": 1675,
  "gallon": 31962,
  "▁Lock": 7485,
  "▁по": 17969,
  "▁Lance": 17513,
  "▁replicate": 12856,
  "▁fed": 7837,
  "▁unknown": 5120,
  "▁happens": 2287,
  "▁SC": 5029,
  "consumer": 28659,
  "▁Advocacy": 28564,
  "ursuant": 12153,
  "▁UNESCO": 18706,
  "▁chilling": 25911,
  "▁non": 738,
  "▁Toy": 17912,
  "▁ASAP": 21040,
  "▁Tape": 19085,
  "▁Pavilion": 20455,
  "▁Hutchinson": 31330,
  "▁neurological": 20785,
  "▁regional": 3205,
  "▁Rap": 17478,
  "▁exceptions": 13174,
  "▁wheelchair": 12771,
  "▁fittings": 17152,
  "▁Hippo": 30549,
  "▁firm": 1623,
  "▁Publications": 22154,
  "▁shirts": 9823,
  "▁euro": 13158,
  "CAM": 16473,
  "▁Roast": 23574,
  "▁Epidemiol": 31245,
  "▁Grad": 22972,
  "Anybody": 28329,
  "▁premiere": 11173,
  "▁moose": 31170,
  "Chair": 28242,
  "▁ammonia": 28135,
  "▁Mattress": 22380,
  "▁Academic": 11065,
  "hospitable": 31871,
  "▁triangle": 13361,
  "▁mobile": 1220,
  "Vision": 27700,
  "▁factors": 2040,
  "paying": 24784,
  "POINT": 30409,
  "wagering": 27969,
  "▁tick": 7811,
  "iness": 5766,
  "▁officer": 3738,
  "▁numerous": 2163,
  "stretch": 27285,
  "▁Sheffield": 18428,
  "▁backward": 19892,
  "▁countertop": 21818,
  "▁coconut": 6475,
  "▁Gluten": 26093,
  "▁overwhelming": 7565,
  "▁membrane": 9394,
  "ACP": 25676,
  "▁Texas": 2132,
  "▁844-244-6": 31619,
  "▁750": 16231,
  "▁ranch": 11869,
  "disrupting": 30761,
  "▁guidelines": 4046,
  "▁modular": 12651,
  "▁Charity": 19144,
  "▁clutch": 13002,
  "▁smartphones": 10335,
  "50,000": 10432,
  "▁Olivier": 30485,
  "▁refugees": 11113,
  "burn": 5890,
  "▁Herb": 17517,
  "▁paragraphs": 19718,
  "▁webinar": 10986,
  "▁Coco": 17092,
  "▁somewhere": 4083,
  "vitamin": 28010,
  "lant": 7686,
  "▁picnic": 9412,
  "76": 4622,
  "▁eager": 8631,
  "▁delighted": 7344,
  "▁terms": 1210,
  "▁constitutional": 12398,
  "▁peninsula": 22264,
  "▁proven": 3766,
  "▁sewer": 13450,
  "▁Judiciary": 31447,
  "cover": 7841,
  "▁syn": 10879,
  "spot": 16813,
  "▁roaming": 24776,
  "▁safe": 1240,
  "<extra_id_20>": 32079,
  "▁Sang": 21152,
  "▁Verizon": 16884,
  "kil": 20741,
  "▁diary": 17960,
  "▁antibody": 17888,
  "▁M": 536,
  "▁accommodate": 4642,
  "haus": 15048,
  "Org": 25296,
  "definition": 29148,
  "▁Detection": 26425,
  "DX": 15422,
  "litis": 18100,
  "▁Segment": 29944,
  "▁Yes": 1744,
  "▁Cavalier": 28455,
  "▁Jac": 20413,
  "▁understatement": 30224,
  "▁bespoke": 12639,
  "▁Jedi": 26887,
  "gua": 15086,
  "▁balsamic": 29817,
  "▁freezing": 13039,
  "graphie": 31016,
  "▁complexes": 21850,
  "▁imperfections": 25924,
  "He": 4377,
  "▁Studios": 11362,
  "▁died": 2435,
  "orchestrated": 31681,
  "▁APK": 24343,
  "stro": 10429,
  "▁Bry": 22205,
  "▁imported": 11320,
  "▁padding": 22034,
  "▁happy": 1046,
  "Garcinia": 27441,
  "▁pushed": 6772,
  "▁rejuvenation": 30159,
  "228": 22463,
  "▁whatever": 2268,
  "RUS": 27436,
  "match": 14836,
  "robbing": 31300,
  "▁Loch": 25304,
  "▁rendition": 24416,
  "▁drywall": 24738,
  "▁set": 502,
  "sweetened": 26193,
  "▁types": 1252,
  "▁contests": 17781,
  "▁closet": 6024,
  "cake": 17135,
  "▁Spot": 13740,
  "6-7": 21241,
  "▁shopper": 24572,
  "▁Confirm": 28336,
  "▁purposes": 2674,
  "▁firmly": 10392,
  "▁pan": 2465,
  "diluted": 21763,
  "beat": 16880,
  "▁£2": 11159,
  "▁matched": 9963,
  "▁Administrator": 13991,
  "▁THROUGH": 28914,
  "▁obtain": 2583,
  "▁MySQL": 20869,
  "▁trays": 20059,
  "▁embrace": 6707,
  "▁North": 1087,
  "▁torment": 27461,
  "▁kingdom": 8983,
  "LV": 15312,
  "▁rotate": 13476,
  "▁clamp": 15122,
  "▁appeal": 3508,
  "▁LAN": 18633,
  "▁sufficient": 4403,
  "▁NZ": 13614,
  "▁chunks": 18607,
  "▁consumption": 4184,
  "residing": 12658,
  "▁colourful": 13790,
  "▁evident": 8939,
  "7-9": 24436,
  "fiber": 27517,
  ");": 3545,
  "▁Decision": 16490,
  "Luckily": 11016,
  "▁Dispute": 27753,
  "▁ebook": 8140,
  "hearted": 16022,
  "▁Female": 17712,
  "▁costing": 16996,
  "▁Billboard": 23399,
  "▁Quilt": 18343,
  "▁singles": 11738,
  "▁sloppy": 30262,
  "▁UC": 9326,
  "caster": 18876,
  "▁lack": 1821,
  "▁moral": 5344,
  "▁continual": 21792,
  "▁explore": 1807,
  "▁competitiveness": 22503,
  "occupies": 25006,
  "▁Promotion": 13491,
  "▁Remarkabl": 31529,
  "»": 14100,
  "▁Golden": 5375,
  "▁topping": 13063,
  "98%": 27687,
  "▁Logo": 15632,
  "▁Helping": 22073,
  "▁advisory": 11859,
  "▁Reid": 18763,
  "▁Networks": 15345,
  "responsibilities": 6499,
  "▁pedigree": 28930,
  "asian": 23581,
  "▁Beth": 14582,
  "strung": 30666,
  "▁Loving": 23795,
  "pulse": 28544,
  "mund": 20456,
  "▁minute": 2307,
  "▁gut": 8096,
  "absorb": 30459,
  "environment": 27035,
  "▁clubhouse": 23821,
  "▁Lace": 22037,
  "food": 11926,
  "uous": 14692,
  "gado": 28416,
  "▁vest": 13172,
  "▁PLC": 23771,
  "X": 1203,
  "▁reimbursement": 16986,
  "▁offer": 575,
  "correct": 21662,
  "▁revolutionary": 12055,
  "▁pleasing": 14550,
  "▁CSV": 28901,
  "▁Psychology": 12469,
  "▁answer": 1347,
  "hren": 20046,
  "▁pilots": 15591,
  "▁secondary": 4765,
  "XT": 16492,
  "▁sympathy": 20030,
  "▁Senator": 9192,
  "▁YOUR": 7212,
  "firm": 15625,
  "▁Single": 6270,
  "9.6": 26517,
  "-03": 14890,
  "▁Austria": 11523,
  "lower": 22431,
  "▁violin": 18358,
  "lius": 24487,
  "▁58": 8953,
  "▁du": 4180,
  "▁typical": 3311,
  "Contin": 17846,
  "▁redundancy": 28136,
  "pea": 18290,
  "▁Baxter": 29308,
  "▁Swan": 14779,
  "▁Achievement": 22043,
  "▁Interstate": 20866,
  "▁Cod": 20021,
  "natural": 13709,
  "▁warn": 13162,
  "<0x87>": 138,
  "▁way": 396,
  "▁rolls": 9706,
  "gene": 15686,
  "▁cream": 2381,
  "▁No": 611,
  "▁chakra": 25771,
  "▁NSW": 13772,
  "bili": 16305,
  "▁University": 696,
  "▁rural": 4576,
  "▁toasted": 22267,
  "▁BT": 15150,
  "▁filtration": 19257,
  "Art": 10801,
  "▁pound": 8478,
  "▁hanging": 5020,
  "▁BIG": 15590,
  "einer": 25793,
  "▁401(": 28286,
  "▁Value": 7597,
  "▁Dell": 11603,
  "<0xF8>": 251,
  "imagine": 26415,
  "▁phase": 3167,
  "▁endeavour": 17332,
  "▁guard": 5128,
  "▁ground": 1391,
  "▁surround": 12646,
  "▁creep": 19244,
  "▁SIP": 24427,
  "▁Tale": 15649,
  "rok": 25664,
  "Body": 31604,
  "▁gains": 7810,
  "▁gamma": 28056,
  "▁2013": 2278,
  "130": 18452,
  "▁Aston": 22438,
  "▁concrete": 3360,
  "▁underwriting": 28483,
  "▁Emerald": 22576,
  "▁filtered": 19335,
  "▁Lee": 3660,
  "pheric": 27134,
  "pine": 13445,
  "<0x48>": 75,
  "acy": 8881,
  "GFR": 30083,
  "▁composite": 9101,
  "▁clientele": 21198,
  "vil": 9289,
  "ach": 3196,
  "▁manually": 7996,
  "2-1": 25477,
  "▁zone": 3684,
  "boarding": 19777,
  "announcing": 17045,
  "▁roller": 7593,
  "buy": 11104,
  "▁upon": 1155,
  "thorpe": 29386,
  "station": 12715,
  "▁monsters": 17116,
  "▁anonymous": 11858,
  "Pri": 19789,
  "▁interfering": 29389,
  "▁contrast": 3706,
  "AFF": 29357,
  "▁Arthur": 10650,
  "▁Digital": 3567,
  "▁Psychologist": 31243,
  "▁templates": 5579,
  "▁Startup": 22124,
  "cient": 18975,
  "▁2012.": 5540,
  "serious": 29683,
  "▁pedagogical": 31733,
  "serve": 20188,
  "▁Bicycle": 25863,
  "▁regard": 4527,
  "▁amendment": 12095,
  "ander": 9145,
  "▁relation": 5201,
  "▁Sinclair": 29614,
  "▁Moses": 14068,
  "75": 3371,
  "▁geographical": 12704,
  "▁Annie": 17418,
  "▁devour": 28754,
  "▁blueberry": 28139,
  "soluble": 19031,
  "▁BMW": 8932,
  "▁mandatory": 9057,
  "chief": 18817,
  "▁placebo": 20092,
  "▁impression": 5494,
  "Secret": 31507,
  "▁epub": 25091,
  "▁increased": 1667,
  "▁Wright": 10815,
  "▁entertain": 13956,
  "▁Ludwig": 30437,
  "▁scal": 20527,
  "”,": 3219,
  "▁attribute": 10040,
  "▁neighborhood": 3703,
  "▁Viva": 28198,
  "▁mainland": 17980,
  "▁Landmark": 27903,
  "▁spacious": 5728,
  "▁laser": 4687,
  "student": 24577,
  "sprayed": 30488,
  "▁scratch": 6382,
  "-08": 14949,
  "EAT": 17366,
  "API": 23682,
  "▁effectiveness": 6613,
  "▁automatically": 2428,
  "▁obligation": 7326,
  "NU": 11124,
  "▁Bart": 17042,
  "stream": 10198,
  "▁Mexico": 3480,
  "wide": 6167,
  "<0x8E>": 145,
  "▁checkpoint": 23099,
  "coffee": 30495,
  "▁office": 868,
  "▁Imaging": 22245,
  "▁Linear": 27499,
  "▁Quick": 5973,
  "▁Algeria": 25708,
  "sci": 13483,
  "▁person": 641,
  "city": 9258,
  "▁1)": 5860,
  "▁indemnif": 23402,
  "ja": 2785,
  "▁clipping": 24953,
  "▁Guys": 4973,
  "▁influenza": 23862,
  "▁username": 13186,
  "▁SO": 4328,
  "inning": 19532,
  "▁Kathleen": 24043,
  "▁cardinal": 28569,
  "▁Olympic": 7761,
  "▁standpoint": 20795,
  "▁sticker": 15997,
  "▁Trick": 22647,
  "▁Bead": 23649,
  "▁answered": 6509,
  "▁Bau": 13392,
  "▁synchronized": 29558,
  "construction": 21669,
  "▁parole": 29877,
  "▁allowing": 2422,
  "▁Norris": 28576,
  "Hub": 25608,
  "▁struck": 6657,
  "▁Zero": 12750,
  "▁Osborne": 29421,
  "▁Manchester": 6637,
  "oral": 13499,
  "enviable": 31838,
  "Big": 16571,
  "▁Salvation": 26742,
  "ooooo": 22119,
  "alism": 12484,
  "▁aromatherapy": 31087,
  "▁listener": 18046,
  "implicated": 30329,
  "▁cancelled": 11613,
  "▁nicely": 7149,
  "racing": 23591,
  "▁reluctant": 14476,
  "▁curiosity": 12410,
  "▁vibr": 19995,
  "lib": 7351,
  "▁17,": 9722,
  "ACC": 25474,
  "▁outcomes": 4345,
  "▁characters": 2273,
  "▁comparable": 9319,
  "VL": 25801,
  "▁spirits": 11402,
  "▁Compare": 10584,
  "▁separate": 2026,
  "▁Salvador": 23584,
  "▁suspected": 12163,
  "▁Rosemary": 27808,
  "▁broader": 8943,
  "▁hurricane": 13666,
  "▁Syrian": 11864,
  "▁DESIGN": 27799,
  "▁Champion": 12747,
  "▁contacts": 8616,
  "▁mistake": 5384,
  "▁cobble": 22336,
  "▁Victor": 14037,
  "▁verge": 24915,
  "▁subscribers": 11245,
  "▁Evil": 20412,
  "▁expired": 16834,
  "2": 601,
  "▁Procedure": 17537,
  "equate": 18380,
  "via": 7845,
  "▁Compatible": 25543,
  "66": 5365,
  "▁therapy": 2802,
  "▁slices": 12264,
  "▁Samaritan": 30323,
  "▁Door": 6866,
  "ode": 6109,
  "admiring": 30805,
  "▁Protect": 10358,
  "▁Jess": 21331,
  "ock": 6839,
  "▁Fantasy": 15270,
  "▁Fabric": 12676,
  "▁sq": 8508,
  "▁mL": 25368,
  "▁£": 6402,
  "▁Hawkins": 28493,
  "▁Lang": 9267,
  "▁Hayward": 30854,
  "based": 1146,
  "▁$100": 7213,
  "sprinkled": 28877,
  "▁chimney": 18453,
  "680": 25142,
  "▁Less": 11562,
  "ked": 9452,
  "OO": 10729,
  "aceous": 24962,
  "▁Medical": 2933,
  "EB": 12934,
  "▁manager": 2348,
  "vers": 6311,
  "▁growth": 1097,
  "▁freak": 15741,
  "▁picking": 5948,
  "▁immaculate": 26578,
  "▁adapter": 9873,
  "categorized": 21004,
  "▁Duncan": 17759,
  "▁finances": 10847,
  "▁Birmingham": 10483,
  "▁Nintendo": 12608,
  "condition": 23750,
  "▁Puzzle": 26112,
  "xml": 22404,
  "▁skipping": 25623,
  "▁pa": 4819,
  "▁authorities": 4050,
  "▁thrift": 23205,
  "▁colleague": 13487,
  "▁suspicious": 14419,
  "▁Baroque": 29742,
  "▁Superintendent": 23878,
  "SURE": 27732,
  "▁disparities": 30114,
  "▁preliminary": 10890,
  "▁probable": 18848,
  "▁Hoffman": 22807,
  "screen": 6360,
  "protein": 20243,
  "▁decay": 13221,
  "▁slideshow": 25707,
  "▁Katie": 14021,
  "▁seventeen": 23575,
  "▁E": 542,
  "<extra_id_5>": 32094,
  "▁Dish": 25196,
  "▁advertising": 2742,
  "▁Wii": 20234,
  "2017": 15233,
  "▁Crisp": 29012,
  "970": 24411,
  "fall": 7507,
  "▁police": 1878,
  "▁Category": 11321,
  "computed": 25126,
  "▁decentralized": 25831,
  "▁punt": 21546,
  "warm": 17329,
  "pin": 5113,
  "coding": 20458,
  "commended": 24377,
  "▁kiss": 13981,
  "base": 7698,
  "unidentified": 30200,
  "▁paradigm": 15239,
  "▁pray": 6108,
  "▁Independent": 9330,
  "train": 11222,
  "▁Edmund": 25214,
  "▁enable": 2634,
  "▁QuickBooks": 27260,
  "▁module": 4505,
  "tended": 16765,
  "lain": 11114,
  "▁Tattoo": 24528,
  "▁bandwagon": 31913,
  "190": 14777,
  "▁Francis": 8568,
  "▁Griffin": 19450,
  "▁piracy": 31029,
  "▁Sometimes": 3019,
  "Mon": 10323,
  "▁excellent": 1231,
  "▁awful": 10582,
  "▁catastrophic": 20473,
  "▁Courier": 30597,
  "worm": 8544,
  "▁Although": 1615,
  "15)": 21313,
  "▁lens": 4494,
  "▁Su": 3520,
  "▁Ladder": 31313,
  "▁cushion": 11837,
  "еѕ": 26401,
  "▁Federation": 9644,
  "▁Studio": 4999,
  "▁postpartum": 30844,
  "bourg": 27885,
  "222": 21576,
  "ban": 5283,
  "▁walkway": 20422,
  "long": 3498,
  "▁proudly": 11834,
  "SPECT": 26699,
  "▁openness": 22923,
  "▁null": 17242,
  "▁(7)": 24578,
  "▁Theory": 12268,
  "▁Analytics": 10646,
  "▁Mercy": 21845,
  "erson": 8880,
  "▁Industrial": 6388,
  "▁Display": 9193,
  "Cost": 31980,
  "##": 23934,
  "▁chime": 24921,
  "36": 4395,
  "▁Travis": 18645,
  "anna": 7632,
  "▁hormonal": 26291,
  "loveseat": 17260,
  "▁redesign": 16058,
  "associated": 25486,
  "▁35": 2825,
  "▁plaster": 17064,
  "If": 4544,
  "Geoffrey": 30681,
  "▁concede": 29822,
  "▁migrate": 20288,
  "diagnosing": 30738,
  "▁theater": 7267,
  "▁Here": 941,
  "▁clutter": 13575,
  "▁1,500": 19449,
  "▁modes": 10006,
  "▁arcade": 19407,
  "licit": 13764,
  "linear": 23610,
  "▁Jurassic": 30390,
  "▁7-": 14098,
  "▁Aquatic": 29785,
  "▁Leo": 13748,
  "▁realtor": 22320,
  "▁Kerala": 19080,
  "▁Relief": 19482,
  "▁illegal": 4959,
  "▁biomarker": 28285,
  "▁Token": 26216,
  "▁deliberate": 18649,
  "Val": 22846,
  "▁Watson": 13327,
  "Value": 28903,
  "▁Angle": 20780,
  "▁Opinion": 23537,
  "▁Credit": 4875,
  "▁Ministry": 5504,
  "▁HIV": 9571,
  "vir": 10841,
  "▁temptation": 18016,
  "▁gimmick": 28181,
  "▁Holt": 22815,
  "▁peppers": 13003,
  "▁Zimbabwe": 16967,
  "▁SL": 10850,
  "▁negative": 2461,
  "▁established": 1811,
  "▁Stanton": 30440,
  "Depending": 7552,
  "▁carbon": 3568,
  "gap": 26010,
  "▁husband": 2089,
  "▁encourage": 2546,
  "▁Formation": 27856,
  "▁mast": 20373,
  "▁critters": 31051,
  "▁campus": 3621,
  "▁4:00": 22087,
  "stipulate": 22879,
  "▁sweep": 13823,
  "▁Wheels": 19203,
  "▁plunge": 14140,
  "▁assess": 4689,
  "▁dividends": 17849,
  "▁church": 1767,
  "▁secretary": 10464,
  "▁Questions": 9614,
  "▁congratulate": 21105,
  "▁CE": 8791,
  "▁CMS": 13861,
  "▁EST": 16262,
  "▁Talk": 6825,
  "▁jigsaw": 31848,
  "▁Towel": 27708,
  "▁91": 12978,
  "▁glow": 10676,
  "wald": 23729,
  "▁SHIPPING": 31458,
  "r": 331,
  "fibro": 23998,
  "▁Albert": 9055,
  "▁Shower": 10954,
  "▁trespass": 29948,
  "unless": 20380,
  "cham": 23705,
  "▁Beau": 14744,
  "Possibly": 25932,
  "▁ASTM": 25757,
  "import": 31456,
  "2010": 13685,
  "▁bizarre": 17649,
  "▁Keep": 2725,
  "▁recruited": 19577,
  "▁implication": 27081,
  "▁Handmade": 25551,
  "▁wiki": 17344,
  "▁Myrtle": 26651,
  "▁lol": 12028,
  "paul": 28358,
  "▁Elements": 21373,
  "iden": 16408,
  "▁running": 1086,
  "<0x41>": 68,
  "▁recoup": 31658,
  "▁Topic": 18312,
  "▁spices": 10743,
  "put": 6987,
  "ard": 2293,
  "▁ERP": 17818,
  "▁mantle": 26340,
  "▁Doors": 12662,
  "pad": 7275,
  "▁preventive": 18974,
  "▁scratches": 18498,
  "▁eclectic": 17677,
  "▁27,": 10123,
  "▁whiskey": 22184,
  "▁ruled": 10289,
  "▁turbulent": 28348,
  "▁Korean": 6661,
  "▁string": 4652,
  "▁Zhang": 18206,
  "–19": 22777,
  "▁palm": 7466,
  "▁decimal": 25055,
  "▁attachment": 9908,
  "▁rotating": 14541,
  "▁1.6": 15777,
  "ELE": 23725,
  "Aside": 17825,
  "Featuring": 11482,
  "▁cooker": 13646,
  "▁Fellowship": 14765,
  "▁unnecessarily": 29521,
  "WAR": 18346,
  "▁civilian": 14793,
  "tras": 23653,
  "▁Amp": 18671,
  "▁Shan": 11933,
  "▁repression": 31354,
  "lake": 13829,
  "ingham": 14000,
  "▁entertaining": 6695,
  "▁Branson": 31309,
  "▁participate": 2815,
  "▁Marathon": 15423,
  "get": 5015,
  "hindered": 31731,
  "▁Ellis": 16028,
  "HC": 9600,
  "▁Werner": 31379,
  "ATCH": 20396,
  "▁recommendations": 4045,
  "worthy": 14322,
  "▁Championship": 7453,
  "▁coriander": 26560,
  "ggy": 9852,
  "▁Stevens": 15501,
  "▁Comics": 21068,
  "▁Recent": 12300,
  "▁plus": 1742,
  "▁Xerox": 31084,
  "day": 1480,
  "▁preparing": 4703,
  "▁Tours": 16065,
  "sheet": 10488,
  "▁apple": 6099,
  "itter": 11101,
  "▁architecture": 3420,
  "▁warrior": 13222,
  "<0x94>": 151,
  "▁cliff": 11348,
  "8-9": 25415,
  "▁revitalize": 31367,
  "▁Crab": 25509,
  "▁curtail": 29410,
  "▁Uruguay": 27972,
  "▁Medieval": 26504,
  "▁channel": 2957,
  "▁Tide": 24584,
  "▁idiom": 30614,
  "▁interactions": 6784,
  "graphy": 14035,
  "▁predetermined": 21993,
  "▁Everyone": 4567,
  "▁defects": 11567,
  "favored": 23164,
  "▁Presentation": 18543,
  "▁Mining": 7976,
  "ency": 6457,
  "▁firms": 4043,
  "▁ice": 2144,
  "▁Lyon": 17858,
  "benefit": 29488,
  "▁Scar": 11000,
  "▁rescued": 19800,
  "▁Giveaway": 24381,
  "▁pickle": 17807,
  "▁600": 5996,
  "▁peaks": 15332,
  "▁Dwight": 30344,
  "▁pat": 11636,
  "hoop": 15731,
  "▁striped": 22280,
  "hydroxy": 23299,
  "▁expect": 1465,
  "tune": 14184,
  "▁toiletries": 26319,
  "▁toddler": 13395,
  "▁Nottingham": 19497,
  "igh": 10856,
  "▁primary": 1904,
  "▁Flower": 12808,
  "▁nightclub": 24919,
  "▁Library": 3651,
  "▁cycling": 8937,
  "▁wearing": 3584,
  "▁enact": 25654,
  "disposing": 30294,
  "▁Doctors": 18388,
  "▁grounds": 6387,
  "du": 4124,
  "commerce": 8783,
  "▁Created": 17699,
  "▁kiosk": 23822,
  "▁Cre": 7035,
  "▁Lights": 12773,
  "▁Six": 6820,
  "▁RSVP": 22451,
  "MV": 13061,
  "▁Huffington": 30550,
  "▁strap": 9476,
  "▁plays": 3497,
  "VAC": 29241,
  "▁injected": 20625,
  "ent": 1379,
  "▁scrolling": 23038,
  "▁Fla": 8424,
[...]
